<pad>	0
</s>	0
<unk>	0
<0x00>	0
<0x01>	0
<0x02>	0
<0x03>	0
<0x04>	0
<0x05>	0
<0x06>	0
<0x07>	0
<0x08>	0
<0x09>	0
<0x0A>	0
<0x0B>	0
<0x0C>	0
<0x0D>	0
<0x0E>	0
<0x0F>	0
<0x10>	0
<0x11>	0
<0x12>	0
<0x13>	0
<0x14>	0
<0x15>	0
<0x16>	0
<0x17>	0
<0x18>	0
<0x19>	0
<0x1A>	0
<0x1B>	0
<0x1C>	0
<0x1D>	0
<0x1E>	0
<0x1F>	0
<0x20>	0
<0x21>	0
<0x22>	0
<0x23>	0
<0x24>	0
<0x25>	0
<0x26>	0
<0x27>	0
<0x28>	0
<0x29>	0
<0x2A>	0
<0x2B>	0
<0x2C>	0
<0x2D>	0
<0x2E>	0
<0x2F>	0
<0x30>	0
<0x31>	0
<0x32>	0
<0x33>	0
<0x34>	0
<0x35>	0
<0x36>	0
<0x37>	0
<0x38>	0
<0x39>	0
<0x3A>	0
<0x3B>	0
<0x3C>	0
<0x3D>	0
<0x3E>	0
<0x3F>	0
<0x40>	0
<0x41>	0
<0x42>	0
<0x43>	0
<0x44>	0
<0x45>	0
<0x46>	0
<0x47>	0
<0x48>	0
<0x49>	0
<0x4A>	0
<0x4B>	0
<0x4C>	0
<0x4D>	0
<0x4E>	0
<0x4F>	0
<0x50>	0
<0x51>	0
<0x52>	0
<0x53>	0
<0x54>	0
<0x55>	0
<0x56>	0
<0x57>	0
<0x58>	0
<0x59>	0
<0x5A>	0
<0x5B>	0
<0x5C>	0
<0x5D>	0
<0x5E>	0
<0x5F>	0
<0x60>	0
<0x61>	0
<0x62>	0
<0x63>	0
<0x64>	0
<0x65>	0
<0x66>	0
<0x67>	0
<0x68>	0
<0x69>	0
<0x6A>	0
<0x6B>	0
<0x6C>	0
<0x6D>	0
<0x6E>	0
<0x6F>	0
<0x70>	0
<0x71>	0
<0x72>	0
<0x73>	0
<0x74>	0
<0x75>	0
<0x76>	0
<0x77>	0
<0x78>	0
<0x79>	0
<0x7A>	0
<0x7B>	0
<0x7C>	0
<0x7D>	0
<0x7E>	0
<0x7F>	0
<0x80>	0
<0x81>	0
<0x82>	0
<0x83>	0
<0x84>	0
<0x85>	0
<0x86>	0
<0x87>	0
<0x88>	0
<0x89>	0
<0x8A>	0
<0x8B>	0
<0x8C>	0
<0x8D>	0
<0x8E>	0
<0x8F>	0
<0x90>	0
<0x91>	0
<0x92>	0
<0x93>	0
<0x94>	0
<0x95>	0
<0x96>	0
<0x97>	0
<0x98>	0
<0x99>	0
<0x9A>	0
<0x9B>	0
<0x9C>	0
<0x9D>	0
<0x9E>	0
<0x9F>	0
<0xA0>	0
<0xA1>	0
<0xA2>	0
<0xA3>	0
<0xA4>	0
<0xA5>	0
<0xA6>	0
<0xA7>	0
<0xA8>	0
<0xA9>	0
<0xAA>	0
<0xAB>	0
<0xAC>	0
<0xAD>	0
<0xAE>	0
<0xAF>	0
<0xB0>	0
<0xB1>	0
<0xB2>	0
<0xB3>	0
<0xB4>	0
<0xB5>	0
<0xB6>	0
<0xB7>	0
<0xB8>	0
<0xB9>	0
<0xBA>	0
<0xBB>	0
<0xBC>	0
<0xBD>	0
<0xBE>	0
<0xBF>	0
<0xC0>	0
<0xC1>	0
<0xC2>	0
<0xC3>	0
<0xC4>	0
<0xC5>	0
<0xC6>	0
<0xC7>	0
<0xC8>	0
<0xC9>	0
<0xCA>	0
<0xCB>	0
<0xCC>	0
<0xCD>	0
<0xCE>	0
<0xCF>	0
<0xD0>	0
<0xD1>	0
<0xD2>	0
<0xD3>	0
<0xD4>	0
<0xD5>	0
<0xD6>	0
<0xD7>	0
<0xD8>	0
<0xD9>	0
<0xDA>	0
<0xDB>	0
<0xDC>	0
<0xDD>	0
<0xDE>	0
<0xDF>	0
<0xE0>	0
<0xE1>	0
<0xE2>	0
<0xE3>	0
<0xE4>	0
<0xE5>	0
<0xE6>	0
<0xE7>	0
<0xE8>	0
<0xE9>	0
<0xEA>	0
<0xEB>	0
<0xEC>	0
<0xED>	0
<0xEE>	0
<0xEF>	0
<0xF0>	0
<0xF1>	0
<0xF2>	0
<0xF3>	0
<0xF4>	0
<0xF5>	0
<0xF6>	0
<0xF7>	0
<0xF8>	0
<0xF9>	0
<0xFA>	0
<0xFB>	0
<0xFC>	0
<0xFD>	0
<0xFE>	0
<0xFF>	0
▁	-3.39424
,	-3.51916
.	-3.59406
1	-4.41288
0	-4.54413
2	-4.68547
-	-4.70262
s	-4.82628
▁a	-4.9202
▁na	-5.15833
'	-5.17024
▁de	-5.17718
▁the	-5.232
▁in	-5.24413
:	-5.33724
9	-5.41445
▁ya	-5.42251
n	-5.42891
▁da	-5.4761
3	-5.54048
▁(	-5.54149
▁die	-5.55468
▁ka	-5.57254
▁la	-5.58229
’	-5.61531
5	-5.62468
a	-5.63505
▁ku	-5.66209
▁of	-5.68327
4	-5.68701
8	-5.75149
)	-5.76927
6	-5.79704
▁en	-5.80297
▁oo	-5.8212
7	-5.82473
▁u	-5.85409
▁wa	-5.87466
▁and	-5.90423
▁is	-5.9529
▁to	-6.01592
▁le	-6.03057
▁e	-6.05057
e	-6.05479
▁"	-6.13821
▁iyo	-6.25856
▁o	-6.29295
o	-6.29608
▁ay	-6.32611
▁van	-6.33056
▁ny	-6.34493
i	-6.35436
▁ba	-6.36559
▁ee	-6.36702
▁ah	-6.37331
ny	-6.42185
"	-6.49325
/	-6.52468
▁ni	-6.55221
▁“	-6.55703
▁et	-6.5593
?	-6.57358
▁A	-6.65021
▁l	-6.65296
na	-6.65936
▁à	-6.66605
▁kwa	-6.67751
▁was	-6.68448
▁se	-6.71486
▁ta	-6.72811
▁as	-6.73524
▁on	-6.76118
▁het	-6.78506
▁uu	-6.79496
▁i	-6.82295
ka	-6.82523
▁n	-6.82698
▁te	-6.84763
▁nie	-6.86071
▁soo	-6.86902
▁ne	-6.87638
▁d	-6.88719
▁si	-6.9237
▁ho	-6.92838
▁by	-6.9383
▁ayaa	-6.9399
▁mu	-6.95014
▁ma	-6.9552
▁-	-6.95857
;	-6.99609
▁du	-7.00002
▁The	-7.0058
▁des	-7.00803
▁'	-7.0259
▁za	-7.03202
▁no	-7.03689
▁for	-7.04286
▁om	-7.06804
▁que	-7.06872
▁wat	-7.07791
▁I	-7.08435
r	-7.09845
▁aan	-7.09911
▁les	-7.1014
u	-7.10672
▁ti	-7.11193
▁kan	-7.1709
y	-7.17245
▁an	-7.17372
ን	-7.26956
▁do	-7.27439
!	-7.28387
▁sy	-7.28457
m	-7.28915
▁‘	-7.30477
▁sa	-7.31712
▁amin	-7.3179
▁at	-7.33502
▁vir	-7.33662
▁est	-7.34813
t	-7.35147
▁with	-7.35626
▁op	-7.36749
ni	-7.3731
▁that	-7.37321
”	-7.37558
▁U	-7.38781
wa	-7.38837
▁In	-7.3902
▁met	-7.39034
...	-7.39077
▁ke	-7.39828
▁ko	-7.39989
ta	-7.40535
an	-7.41682
▁ndi	-7.42009
▁be	-7.43068
▁በ	-7.43462
▁فى	-7.4434
▁em	-7.45177
▁و	-7.45198
▁yi	-7.45321
d	-7.45729
▁የ	-7.45946
▁M	-7.46393
da	-7.50294
▁ga	-7.51296
▁un	-7.51451
▁dit	-7.51904
▁au	-7.52341
▁waa	-7.53033
se	-7.5369
▁ha	-7.55213
▁kuma	-7.55576
▁O	-7.56134
▁lagu	-7.56138
▁Die	-7.56285
▁m	-7.56886
▁kuwa	-7.57597
).	-7.59169
­	-7.59371
▁ugu	-7.59416
▁dia	-7.60577
ba	-7.6143
▁Section	-7.62427
sa	-7.62471
▁su	-7.62921
in	-7.63475
▁par	-7.6424
ng	-7.64627
▁dans	-7.64641
::::	-7.64748
▁kuti	-7.6478
▁–	-7.66382
A	-7.67462
▁word	-7.67658
ና	-7.68338
),	-7.69832
er	-7.70157
▁from	-7.70192
▁kale	-7.70384
▁katika	-7.70467
▁waxa	-7.70559
▁|	-7.7093
▁loo	-7.72203
▁mid	-7.72658
▁Ka	-7.72906
ም	-7.74253
▁awọn	-7.76042
▁une	-7.76209
le	-7.76658
▁waxaa	-7.77279
▁Ku	-7.77587
▁dat	-7.77873
de	-7.78446
▁Le	-7.79116
▁ama	-7.7952
▁go	-7.79541
ing	-7.79645
la	-7.79668
▁La	-7.81302
▁ce	-7.81527
▁ons	-7.81748
ku	-7.82702
yo	-7.83469
▁fa	-7.83779
▁re	-7.83858
▁cha	-7.83945
▁he	-7.84535
▁pour	-7.85208
es	-7.85898
com	-7.86049
▁his	-7.86261
te	-7.87916
▁aka	-7.88269
▁aad	-7.88979
▁N	-7.89378
%	-7.89427
▁ea	-7.89711
▁C	-7.90036
▁Na	-7.91082
.”	-7.91562
▁so	-7.92156
▁um	-7.92157
▁badan	-7.92959
ga	-7.93077
▁wax	-7.94898
▁qui	-7.95116
▁S	-7.95129
▁ከ	-7.95373
▁jy	-7.95749
▁are	-7.96566
▁it	-7.96644
ya	-7.96862
▁uma	-7.97002
፣	-7.97513
▁pa	-7.98509
]	-7.98563
▁laga	-7.98611
▁E	-8.0098
▁para	-8.01563
ed	-8.01802
to	-8.02298
▁nke	-8.02562
ma	-8.02976
▁waxay	-8.03355
▁com	-8.03452
▁ek	-8.0469
",	-8.04969
▁son	-8.05103
▁kama	-8.06019
▁’	-8.06144
▁Somaliland	-8.07376
S	-8.07789
ke	-8.07814
▁tsy	-8.08183
▁al	-8.08373
k	-8.08872
▁jou	-8.08945
ko	-8.09285
▁[	-8.09582
▁Ma	-8.10031
▁ye	-8.10141
ra	-8.10251
▁my	-8.10544
▁hulle	-8.11661
▁sur	-8.118
▁/	-8.12842
▁sal	-8.13128
▁En	-8.13399
▁we	-8.13536
l	-8.1395
▁cikin	-8.13974
en	-8.14002
▁kala	-8.14754
▁እና	-8.15536
no	-8.1577
▁ao	-8.16006
▁li	-8.16182
▁inay	-8.16318
ne	-8.16447
▁ọ	-8.16698
as	-8.17392
h	-8.1751
re	-8.17959
▁il	-8.18064
▁were	-8.18503
▁shi	-8.18617
▁ki	-8.20149
▁mai	-8.22075
▁ላይ	-8.22764
▁hore	-8.23702
▁daga	-8.23829
▁L	-8.23849
▁Soomaaliya	-8.24971
".	-8.25037
▁He	-8.25414
▁or	-8.25949
ar	-8.26156
un	-8.26159
▁B	-8.26965
▁oor	-8.27703
▁ou	-8.2869
p	-8.28706
▁dalka	-8.28767
▁deur	-8.28831
mu	-8.29803
▁ለ	-8.29838
do	-8.29999
▁cewa	-8.30005
▁...	-8.30352
th	-8.30575
I	-8.30611
▁which	-8.3083
▁tahay	-8.30942
▁has	-8.31125
▁:	-8.31434
▁ook	-8.3207
▁sun	-8.32609
_	-8.32846
▁suka	-8.32899
▁sida	-8.33013
mo	-8.33182
▁not	-8.33329
▁ati	-8.33446
▁yake	-8.3355
▁fi	-8.34256
aan	-8.34262
▁wannan	-8.34281
▁y	-8.34947
▁ndị	-8.34971
so	-8.35334
ha	-8.35895
▁«	-8.35923
▁Oo	-8.36171
ው	-8.36438
▁avec	-8.36606
b	-8.36649
ki	-8.36771
▁tsa	-8.37152
▁had	-8.37531
።	-8.37855
▁é	-8.38425
c	-8.38658
si	-8.38861
▁this	-8.38872
yan	-8.39095
▁tu	-8.39262
://	-8.39436
▁maar	-8.39457
ay	-8.39476
▁Il	-8.39523
▁K	-8.39766
▁&	-8.3992
we	-8.40041
▁di	-8.40165
▁yahay	-8.40551
▁have	-8.40902
ada	-8.40975
ti	-8.41285
▁sheegay	-8.41503
▁por	-8.4159
▁»	-8.41685
f	-8.42887
▁plus	-8.43243
kii	-8.43279
M	-8.43715
▁D	-8.43753
▁Al	-8.44209
▁ireo	-8.44227
lo	-8.4447
▁mo	-8.44621
▁bo	-8.44698
be	-8.45287
▁R	-8.45463
▁tse	-8.46196
al	-8.46693
▁P	-8.47028
▁ary	-8.4728
▁Ya	-8.47529
▁ana	-8.47775
il	-8.48095
▁bi	-8.48634
C	-8.48725
▁os	-8.4884
ly	-8.48911
▁hy	-8.48989
▁mais	-8.49304
za	-8.49312
▁T	-8.4963
▁but	-8.49679
▁foi	-8.49959
li	-8.50278
▁ihe	-8.50296
me	-8.50561
N	-8.51306
▁uit	-8.51322
▁hoe	-8.51843
▁wuxuu	-8.52109
▁من	-8.52324
▁moet	-8.52981
▁ahaa	-8.53059
▁bụ	-8.5312
▁lo	-8.53253
▁also	-8.53435
▁their	-8.5356
▁Dit	-8.54159
▁sont	-8.54364
▁leh	-8.54668
▁uga	-8.55156
ት	-8.55209
D	-8.55225
▁wani	-8.5535
▁ነው	-8.55425
▁dadka	-8.55885
w	-8.55912
▁futhi	-8.56236
▁yo	-8.56366
g	-8.56448
▁don	-8.56617
▁zi	-8.56679
tu	-8.57011
▁izay	-8.57122
▁As	-8.57643
▁who	-8.58455
▁Ny	-8.58546
▁qu	-8.58553
x	-8.58592
▁ṣe	-8.60053
su	-8.60386
▁kwenye	-8.60461
z	-8.60509
▁G	-8.60523
▁ukuthi	-8.6063
(	-8.60663
▁kwe	-8.609
▁hierdie	-8.61162
▁como	-8.61954
ji	-8.62093
po	-8.62901
▁her	-8.62924
▁inuu	-8.63112
▁you	-8.63413
▁dan	-8.63511
▁Ek	-8.64164
▁dị	-8.64407
+	-8.64575
▁F	-8.64839
ge	-8.65119
▁isku	-8.65264
co	-8.65765
▁pe	-8.66071
ho	-8.66368
▁one	-8.66598
ro	-8.66874
▁been	-8.67053
di	-8.67364
▁first	-8.67734
go	-8.67774
est	-8.67906
▁tot	-8.67917
▁daar	-8.6807
▁It	-8.68565
é	-8.68744
E	-8.68922
▁#	-8.69689
▁Mu	-8.69844
wo	-8.69928
▁ili	-8.70145
▁hiyo	-8.70179
▁No	-8.70546
ri	-8.70739
▁its	-8.708
=	-8.70944
▁markii	-8.71165
O	-8.71561
▁ውስጥ	-8.71674
zi	-8.7198
▁baie	-8.72001
▁lati	-8.7232
B	-8.72414
–	-8.72451
▁$	-8.72546
▁wanda	-8.737
▁masu	-8.74076
▁iya	-8.74296
▁dib	-8.74515
▁De	-8.74543
="	-8.75142
▁Si	-8.75519
▁tamin	-8.75572
▁izany	-8.75724
▁Ni	-8.75957
▁dos	-8.7613
U	-8.76694
man	-8.76873
▁mi	-8.77087
▁Les	-8.77238
▁سنة	-8.77549
▁meer	-8.7826
▁net	-8.78351
▁ge	-8.78394
nt	-8.78561
▁Wa	-8.78725
ye	-8.79163
T	-8.79233
ana	-8.79309
፡	-8.79762
▁sii	-8.7978
▁can	-8.79852
▁aba	-8.79998
▁uku	-8.80114
▁yana	-8.80138
▁wada	-8.80482
▁Maxamed	-8.80556
▁May	-8.80681
aa	-8.80801
▁gaan	-8.80814
▁wọn	-8.80914
▁wees	-8.80957
▁they	-8.80996
ey	-8.81004
፤	-8.81313
▁uye	-8.81381
va	-8.81928
▁yihiin	-8.82293
▁all	-8.82604
▁sana	-8.82626
▁pas	-8.83142
▁God	-8.83308
▁wo	-8.83396
une	-8.83838
▁wake	-8.83878
▁ahaan	-8.84161
▁sai	-8.84491
▁W	-8.8496
pa	-8.85384
on	-8.85515
▁New	-8.86135
▁ngo	-8.86346
▁any	-8.86359
▁fun	-8.86424
▁soos	-8.86452
▁H	-8.86463
▁Chi	-8.86807
▁Ba	-8.87125
▁entre	-8.87613
▁maka	-8.87737
▁ወደ	-8.87824
ci	-8.88277
▁zo	-8.88308
▁w	-8.88308
▁Da	-8.88401
du	-8.88655
▁waxaan	-8.88737
am	-8.89333
▁On	-8.89617
▁zuwa	-8.90107
▁am	-8.90111
▁ra	-8.90163
▁été	-8.90343
v	-8.9046
▁aux	-8.91169
▁vya	-8.91171
▁watu	-8.91319
▁zai	-8.9184
,”	-8.91899
K	-8.92251
▁kwamba	-8.92307
▁J	-8.92347
▁more	-8.92729
yi	-8.93007
▁maak	-8.93324
fa	-8.93344
▁wata	-8.93411
▁ander	-8.93425
▁ukuba	-8.93505
▁two	-8.93765
is	-8.93812
▁Afrika	-8.94103
▁af	-8.94154
▁አ	-8.94329
▁Kwa	-8.94405
ce	-8.9447
▁een	-8.94628
▁Ta	-8.94729
mi	-8.94837
ca	-8.95211
▁magaalada	-8.95354
▁ina	-8.95429
▁tare	-8.95451
▁Seks	-8.95483
▁toe	-8.95486
▁kasar	-8.9559
▁haka	-8.95815
▁ayuu	-8.96182
The	-8.96289
je	-8.96388
▁waxaana	-8.96585
▁into	-8.97007
▁Se	-8.97008
▁kana	-8.97081
▁Ha	-8.97112
▁me	-8.97156
P	-8.97195
▁ake	-8.97237
▁ahụ	-8.97784
zo	-8.97922
▁ezi	-8.97961
▁ci	-8.98075
ja	-8.98152
een	-8.98213
፡፡	-8.98663
▁c	-8.98904
▁marka	-8.99189
▁Em	-8.99723
▁time	-8.99827
▁ile	-8.99884
▁will	-9.005
▁An	-9.00624
▁wakati	-9.01038
▁kwi	-9.01232
▁haar	-9.01237
▁Muqdisho	-9.0141
."	-9.0146
▁comme	-9.01501
▁izy	-9.01501
▁har	-9.01626
asi	-9.01637
▁kuna	-9.01655
▁after	-9.01815
▁kasa	-9.01847
▁mense	-9.02435
▁domin	-9.02536
▁maanta	-9.02684
▁ses	-9.02776
F	-9.03047
▁other	-9.03176
▁man	-9.03511
▁she	-9.0386
▁yadda	-9.05353
ር	-9.05387
▁eo	-9.05748
G	-9.05966
▁Ki	-9.06025
▁loogu	-9.06036
aad	-9.06107
▁mar	-9.06368
▁k	-9.06684
L	-9.06714
▁እንደ	-9.06738
▁V	-9.07037
bo	-9.07049
▁kai	-9.07243
▁Ra	-9.07278
▁ali	-9.07754
us	-9.07837
▁Allah	-9.07954
▁mba	-9.08033
▁b	-9.08144
ndo	-9.08184
▁nan	-9.08213
▁United	-9.08499
▁nge	-9.08583
▁ont	-9.0859
▁hii	-9.08846
▁Ho	-9.08857
▁Hy	-9.08893
the	-9.08913
ል	-9.08972
▁hul	-9.09004
id	-9.09035
▁Re	-9.09419
▁oa	-9.09479
kwa	-9.09528
▁wasu	-9.09538
▁up	-9.09823
gu	-9.10332
▁over	-9.10352
▁sua	-9.10583
▁groot	-9.107
▁va	-9.11031
▁suna	-9.11462
▁não	-9.11881
▁zaidi	-9.11882
▁Najeriya	-9.11922
▁deux	-9.12514
▁mwa	-9.12552
▁ike	-9.13095
R	-9.13156
▁kom	-9.13273
▁Cali	-9.13291
bi	-9.13936
▁ይ	-9.13998
▁https	-9.1411
▁jira	-9.14258
sha	-9.14306
▁new	-9.14351
▁ጋር	-9.14369
▁Puntland	-9.14553
ة	-9.14609
▁ọrụ	-9.14655
▁isla	-9.14734
pe	-9.14994
ስ	-9.15041
▁gebruik	-9.1511
▁weyn	-9.15216
▁jihar	-9.15549
▁ze	-9.15593
os	-9.15659
ers	-9.15776
▁lahaa	-9.15877
▁wil	-9.15954
▁mwaka	-9.16338
▁out	-9.16518
▁Waxaa	-9.16536
▁መ	-9.16646
▁site	-9.1678
W	-9.16802
▁Kenya	-9.16878
chi	-9.16898
▁rẹ	-9.17335
▁ግን	-9.17364
▁ara	-9.175
▁يوم	-9.17892
▁jẹ	-9.17939
▁looga	-9.17948
▁gaar	-9.18021
▁when	-9.18186
▁would	-9.18635
▁Somalia	-9.1885
▁qof	-9.19474
▁tla	-9.19493
▁Ke	-9.19615
nga	-9.19691
@	-9.19805
▁مع	-9.19957
▁This	-9.20056
▁people	-9.20199
▁kutoka	-9.20245
▁inta	-9.20414
▁noma	-9.20428
ii	-9.2048
▁Mo	-9.20487
▁sê	-9.20554
ina	-9.20656
▁mara	-9.2079
j	-9.20884
▁about	-9.20887
▁yin	-9.20904
▁ነው።	-9.21051
▁ji	-9.21161
▁September	-9.2151
▁bayan	-9.21824
▁kara	-9.22054
▁tena	-9.22162
▁azy	-9.22438
▁April	-9.22596
V	-9.22731
▁nou	-9.22923
▁>	-9.23068
▁Dr	-9.23071
ment	-9.23257
▁him	-9.23364
▁Iyo	-9.23481
▁•	-9.23541
▁nog	-9.23548
▁Waa	-9.23553
ireo	-9.23623
▁kazi	-9.23664
▁فريق	-9.23712
▁muri	-9.23838
ve	-9.23872
ia	-9.23944
▁Ọ	-9.24105
▁game	-9.24185
▁Ee	-9.24603
▁Axmed	-9.24947
▁avy	-9.251
▁samu	-9.25154
▁voor	-9.25276
▁bu	-9.25327
▁hor	-9.25507
▁fara	-9.25518
▁handel	-9.25669
▁iska	-9.25705
▁seu	-9.25758
▁kanye	-9.25917
▁gaba	-9.25952
▁lakini	-9.26019
cha	-9.26046
▁ʼ	-9.26067
▁November	-9.26415
▁haddii	-9.26533
▁dad	-9.26579
▁sasa	-9.26903
▁wana	-9.26942
▁Ons	-9.26998
▁duk	-9.27014
▁June	-9.27053
san	-9.27189
▁fait	-9.27198
or	-9.27306
▁nwere	-9.27506
▁John	-9.27664
▁لعب	-9.2795
▁የሚ	-9.28016
▁jaar	-9.28117
▁Sa	-9.28292
▁Tanzania	-9.28426
▁—	-9.28481
▁مواليد	-9.28661
▁ጊዜ	-9.28766
▁October	-9.28812
▁hivyo	-9.28948
aha	-9.29123
▁ኣብ	-9.29159
▁Madaxweynaha	-9.29161
▁way	-9.29378
▁kula	-9.29519
nu	-9.2953
▁hom	-9.29691
▁March	-9.29742
▁karo	-9.29779
▁years	-9.29885
▁News	-9.29895
▁werk	-9.3012
▁said	-9.30138
▁kasta	-9.30231
▁Casino	-9.30495
▁dai	-9.30536
▁gore	-9.3057
▁So	-9.30624
▁YA	-9.31349
.+	-9.31382
▁yidhi	-9.31415
▁onye	-9.3154
▁University	-9.31609
▁amma	-9.31697
▁doen	-9.31931
▁film	-9.32068
▁baada	-9.32202
▁huo	-9.3243
▁Fa	-9.32495
▁waar	-9.32556
ze	-9.3256
▁ndipo	-9.3266
▁July	-9.32921
▁cette	-9.33059
ry	-9.33124
▁meel	-9.33356
ad	-9.33421
▁only	-9.33446
▁reer	-9.33578
▁kakhulu	-9.33586
▁ị	-9.3362
▁kila	-9.33696
▁part	-9.33904
▁begin	-9.34139
shi	-9.34197
▁Go	-9.34323
▁dhan	-9.34392
▁August	-9.3443
▁Mar	-9.34444
▁Soomaaliyeed	-9.346
▁sidoo	-9.34694
▁To	-9.34907
▁siku	-9.34934
▁Waxa	-9.3526
▁inda	-9.35282
ou	-9.35393
▁اسمها	-9.35425
▁lokacin	-9.35447
&	-9.3567
gi	-9.35689
▁seks	-9.35778
የ	-9.3583
▁chi	-9.35858
▁koa	-9.35878
▁نادى	-9.35908
▁pia	-9.36029
▁cusub	-9.36097
▁forex	-9.36106
fi	-9.36244
H	-9.36333
▁hata	-9.36463
▁abantu	-9.3658
▁ambayo	-9.36765
he	-9.36783
▁misy	-9.3681
▁mas	-9.36881
▁mata	-9.36918
▁اداريه	-9.36932
▁January	-9.37078
▁elle	-9.3728
▁bayyana	-9.37395
▁ita	-9.3741
ie	-9.37764
ru	-9.37777
▁amfani	-9.37928
▁nchi	-9.38005
▁ሲ	-9.38192
▁war	-9.38205
ዎች	-9.3821
▁Li	-9.38217
▁War	-9.3828
▁WA	-9.38312
▁ranar	-9.38532
ch	-9.38548
▁video	-9.38696
adda	-9.38707
▁ilaa	-9.38769
▁abin	-9.38788
▁duwan	-9.38847
በት	-9.39067
▁مركز	-9.39081
▁per	-9.39151
▁Home	-9.39216
▁jiray	-9.39565
▁She	-9.39617
▁where	-9.3976
▁there	-9.39902
▁later	-9.40029
lu	-9.40056
”.	-9.40152
▁ntchito	-9.40349
el	-9.40353
▁<	-9.40356
dii	-9.40364
▁moja	-9.40399
ant	-9.40443
▁zama	-9.40443
ى	-9.40502
▁under	-9.40571
▁ነገር	-9.40685
▁France	-9.4097
ه	-9.41056
▁wajen	-9.41415
▁yar	-9.41426
▁sidii	-9.4156
▁By	-9.41688
ste	-9.41827
vi	-9.41951
▁ahayd	-9.42014
ውን	-9.42053
▁Madaxweyne	-9.42141
aga	-9.42332
▁gị	-9.42438
▁ity	-9.42498
▁+	-9.42567
▁lui	-9.4259
yada	-9.42619
à	-9.42644
▁@	-9.42773
▁December	-9.43112
▁than	-9.43307
▁ari	-9.43344
▁pm	-9.43359
▁kamar	-9.43409
▁Mungu	-9.43451
منطقه	-9.43467
▁Isi	-9.43526
▁teen	-9.43579
▁mutane	-9.43689
▁your	-9.43787
▁Be	-9.43999
▁Africa	-9.44132
▁shugaban	-9.4415
▁KU	-9.44157
▁اللى	-9.44285
▁Jan	-9.44308
▁olona	-9.44679
▁hu	-9.45004
▁dhacay	-9.45094
▁*	-9.45165
▁እ	-9.45237
▁ال	-9.45397
▁isi	-9.45592
▁between	-9.45679
—	-9.4568
▁Legit	-9.45736
▁Ga	-9.45744
it	-9.45752
▁Awọn	-9.45779
ter	-9.45793
▁X	-9.4594
▁China	-9.46138
▁Ko	-9.4615
▁iyadoo	-9.46179
X	-9.46383
▁bona	-9.46394
ነት	-9.46473
▁ver	-9.46515
▁Xasan	-9.46579
▁them	-9.4663
▁raha	-9.46657
q	-9.46722
▁Cabdi	-9.46861
▁tao	-9.46895
▁some	-9.46933
ity	-9.46966
▁je	-9.4705
▁ተ	-9.47219
▁South	-9.47292
▁kunye	-9.47353
▁esi	-9.47481
▁hayo	-9.47525
▁made	-9.4755
▁during	-9.47651
▁ri	-9.4779
▁weer	-9.48045
▁place	-9.48171
▁isaga	-9.48337
▁mtu	-9.48399
▁most	-9.48455
▁February	-9.48528
▁ነው፡፡	-9.48601
▁p	-9.4862
▁article	-9.48675
▁Online	-9.48688
▁hilo	-9.48693
em	-9.48752
▁Sy	-9.48997
▁ser	-9.49044
www	-9.49143
”,	-9.49243
▁pamoja	-9.49293
▁مات	-9.49337
▁io	-9.49422
tay	-9.49935
▁leeyahay	-9.49943
▁Pa	-9.50008
▁City	-9.50056
▁tó	-9.50228
▁World	-9.50276
Ma	-9.50385
ቱ	-9.5049
▁kaga	-9.5058
▁አንድ	-9.5061
▁onder	-9.50692
▁such	-9.50722
▁laakiin	-9.50792
ድ	-9.50871
▁iray	-9.5091
▁take	-9.51017
▁tyd	-9.5108
▁juu	-9.51378
▁My	-9.51387
ver	-9.51397
▁hadlay	-9.5155
▁h	-9.51572
▁Hargeysa	-9.51589
▁!	-9.51845
aba	-9.51924
▁yiri	-9.52026
▁pelo	-9.52077
▁leur	-9.52128
▁v	-9.52225
▁may	-9.52248
▁Forex	-9.52314
▁We	-9.52527
▁tí	-9.52649
▁ihany	-9.52791
▁yanzu	-9.52874
▁http	-9.52891
▁twee	-9.53017
▁pé	-9.53127
▁aiki	-9.53167
▁if	-9.53409
▁dhex	-9.53471
▁una	-9.53491
▁koma	-9.53665
kan	-9.53714
▁daya	-9.53756
▁sous	-9.53833
▁pela	-9.53854
ሉ	-9.53866
st	-9.54001
▁nje	-9.54261
▁says	-9.54338
▁start	-9.54494
▁aanu	-9.54632
▁Next	-9.54664
በ	-9.54776
▁Suid	-9.54867
fu	-9.54873
▁àwọn	-9.54925
▁yoo	-9.55047
▁well	-9.55208
▁Yesu	-9.55216
▁Ali	-9.55352
▁naa	-9.55356
▁laat	-9.55641
son	-9.55662
▁dont	-9.55702
▁help	-9.5585
▁doono	-9.55864
▁tun	-9.5603
▁being	-9.56068
▁Facebook	-9.56252
▁po	-9.5627
▁anyị	-9.56271
▁anthu	-9.56316
tii	-9.56378
land	-9.56404
▁nchini	-9.56445
▁NA	-9.56587
ayo	-9.56714
▁wali	-9.56991
▁idan	-9.57106
▁também	-9.57165
▁irin	-9.57285
▁ní	-9.57337
▁three	-9.57345
▁iri	-9.57428
▁Ti	-9.5744
▁biyu	-9.57587
">	-9.57716
▁saam	-9.57872
et	-9.57959
,+	-9.57966
at	-9.58092
▁ca	-9.58128
▁jam	-9.58212
▁፣	-9.58239
eme	-9.58245
▁baya	-9.58269
▁gobolka	-9.58388
▁Magaalada	-9.58467
▁samun	-9.58489
▁Is	-9.58603
▁Rais	-9.58733
▁rehetra	-9.58865
▁American	-9.58917
▁York	-9.59046
▁Yehova	-9.59121
▁suke	-9.59368
▁بيلعب	-9.59423
▁used	-9.59507
▁ry	-9.59558
▁موجوده	-9.59571
▁hada	-9.59668
▁oku	-9.59809
▁Ci	-9.59862
▁year	-9.59911
▁sha	-9.60024
▁ይህ	-9.60088
day	-9.60179
▁aho	-9.60249
▁tirsan	-9.60273
hi	-9.6042
▁sien	-9.60613
▁Elle	-9.6066
▁kry	-9.60669
vo	-9.60937
nta	-9.60938
sho	-9.61054
▁laba	-9.61236
ee	-9.61583
▁guud	-9.61593
ent	-9.61675
▁nin	-9.61737
▁eerste	-9.6174
▁lewe	-9.61907
mba	-9.61951
Z	-9.61953
▁À	-9.62056
▁ime	-9.62066
▁want	-9.62158
ado	-9.62286
▁baa	-9.62472
▁many	-9.62548
bu	-9.62563
▁ano	-9.62581
▁ohun	-9.62675
▁Dar	-9.62862
▁dowladda	-9.62893
▁également	-9.62897
▁dur	-9.62912
▁Za	-9.62928
▁car	-9.62959
▁hali	-9.62988
▁National	-9.63096
>	-9.6318
▁ambao	-9.63276
▁Somali	-9.63298
▁water	-9.63316
▁alisema	-9.63378
▁nuwe	-9.63497
▁das	-9.63535
▁Wat	-9.6366
▁kuba	-9.63774
\	-9.63845
▁against	-9.6394
ت	-9.63985
ine	-9.64149
▁Soo	-9.64161
▁land	-9.64227
▁hao	-9.64289
▁through	-9.64374
▁ń	-9.64462
▁Buhari	-9.64569
▁même	-9.64585
▁Daar	-9.64641
▁ያ	-9.64924
Q	-9.6493
▁qayb	-9.64932
ram	-9.6496
▁sou	-9.64963
▁online	-9.65015
▁huu	-9.65049
▁same	-9.65073
▁Wasiirka	-9.65074
▁nga	-9.65086
ህ	-9.65117
▁sare	-9.65296
▁Saint	-9.65522
▁ru	-9.65568
▁kodwa	-9.65585
▁mana	-9.6561
J	-9.65615
▁second	-9.65624
tra	-9.65708
▁free	-9.65871
▁dag	-9.6592
▁sọ	-9.66004
▁ele	-9.66036
▁Mi	-9.6611
▁yako	-9.66196
▁ii	-9.66249
▁min	-9.66255
▁commune	-9.66298
▁kon	-9.66418
ona	-9.6652
▁hadda	-9.6664
▁kufanya	-9.66666
▁kuu	-9.66845
▁pẹlu	-9.66935
▁gee	-9.67071
▁work	-9.67125
▁bulshada	-9.67161
▁z	-9.67176
▁Previous	-9.67265
▁co	-9.67284
fe	-9.67443
▁sababu	-9.67479
▁Mkuu	-9.67637
▁zina	-9.67791
▁qaar	-9.67862
▁£	-9.67879
ani	-9.67995
▁izao	-9.68029
iyyar	-9.68202
▁Man	-9.68228
▁ilay	-9.68427
▁ስለ	-9.68581
ton	-9.68594
pi	-9.68622
▁data	-9.68645
▁·	-9.68678
▁Ge	-9.68852
▁like	-9.68926
▁Gobolka	-9.69059
▁aza	-9.69123
▁saboda	-9.69225
▁ወይም	-9.69263
▁ሊ	-9.69346
▁ayay	-9.6935
▁era	-9.6944
▁Van	-9.69462
▁Z	-9.69509
aka	-9.6953
▁ebe	-9.69555
▁nọ	-9.69591
▁before	-9.69836
▁où	-9.69847
▁f	-9.69943
▁lọ	-9.7006
▁Op	-9.70063
▁("	-9.70064
she	-9.70174
▁efa	-9.70297
org	-9.70331
▁nuna	-9.70429
▁name	-9.70491
▁Je	-9.70765
der	-9.70769
▁labada	-9.7083
▁julle	-9.70833
▁kasoo	-9.70835
▁hier	-9.70885
ty	-9.71056
▁ve	-9.71131
▁سنه	-9.71181
▁government	-9.71219
▁tsara	-9.71272
▁II	-9.7135
net	-9.7141
▁mens	-9.71428
▁እንዲ	-9.71431
▁leo	-9.71607
▁lu	-9.71654
um	-9.71654
▁ቤት	-9.71829
▁izi	-9.71886
▁karin	-9.71947
▁known	-9.72008
▁States	-9.7209
▁Free	-9.72211
▁life	-9.72225
▁balse	-9.72227
▁ndani	-9.72229
▁ደግሞ	-9.72413
▁hal	-9.72436
ation	-9.72446
▁Dan	-9.72471
▁galay	-9.72508
▁weet	-9.72551
ime	-9.72637
▁Golaha	-9.7268
▁US	-9.7272
naa	-9.72913
▁what	-9.72941
nd	-9.73017
que	-9.73028
▁Rwanda	-9.73107
ብ	-9.73278
▁At	-9.73327
▁aussi	-9.73458
wu	-9.73624
ዋ	-9.73707
▁muda	-9.73774
▁gba	-9.73787
▁haya	-9.7398
aya	-9.74026
▁St	-9.74036
▁ainsi	-9.74155
▁après	-9.74328
▁State	-9.74456
▁while	-9.74516
▁mme	-9.74558
▁kadib	-9.74658
▁alors	-9.74681
▁était	-9.74693
▁g	-9.74698
La	-9.74707
ይ	-9.74753
▁baxay	-9.74811
▁team	-9.74871
▁Maar	-9.74887
▁Sheekh	-9.75108
▁ukuze	-9.75117
▁won	-9.75153
thi	-9.75156
▁baahan	-9.75171
▁hou	-9.75477
▁Tsy	-9.75629
▁School	-9.75747
▁including	-9.75934
▁bar	-9.75983
▁gu	-9.76
▁our	-9.76026
▁Su	-9.76141
▁dheer	-9.76145
Na	-9.76221
▁Jesus	-9.76299
▁geen	-9.76335
▁masa	-9.76595
▁;	-9.76646
▁ayaan	-9.76709
▁Paris	-9.76898
▁t	-9.76907
▁wao	-9.76909
▁yao	-9.76921
▁ብ	-9.77036
▁Va	-9.77059
▁qaaday	-9.77073
▁For	-9.77264
▁San	-9.77468
▁inaad	-9.77585
▁season	-9.77631
▁ibi	-9.77708
▁Hausa	-9.77717
▁vi	-9.77768
▁hapa	-9.77856
▁wanaagsan	-9.77914
ታ	-9.77947
hu	-9.78034
▁nom	-9.78048
ur	-9.78091
▁ninu	-9.78131
▁kwambiri	-9.78283
▁lori	-9.78424
▁iwe	-9.78535
▁?	-9.78618
▁Posted	-9.7863
▁became	-9.78661
▁Ah	-9.78704
▁Waxaan	-9.78745
▁TV	-9.7876
▁[...]	-9.78809
▁markaana	-9.78835
fo	-9.78884
▁baba	-9.78893
▁socda	-9.78909
nay	-9.79045
▁kubwa	-9.7917
ah	-9.79242
ሽ	-9.79334
▁watan	-9.79536
ama	-9.79676
tha	-9.79789
▁hadi	-9.79817
▁kuri	-9.79862
▁ja	-9.79873
ያ	-9.79999
▁être	-9.80172
▁shiga	-9.80179
▁bai	-9.80211
▁basi	-9.80331
[	-9.80363
▁isagoo	-9.80381
▁são	-9.80384
▁Itoobiya	-9.80439
▁Me	-9.80448
▁maana	-9.80586
▁huyo	-9.80613
▁ame	-9.80644
▁taona	-9.80712
▁long	-9.80775
▁kandi	-9.80842
▁Cha	-9.80882
▁tany	-9.80995
▁use	-9.81038
▁Te	-9.81309
▁inaan	-9.81388
▁=	-9.81398
▁kum	-9.81413
▁media	-9.81418
▁wixii	-9.81483
▁walba	-9.81496
▁hanyar	-9.81501
vu	-9.81603
▁ብቻ	-9.81627
ክ	-9.8164
▁Ce	-9.81731
▁tussen	-9.81877
▁Jy	-9.81937
sh	-9.8194
▁elke	-9.82036
▁premier	-9.82049
▁state	-9.82095
▁eto	-9.82105
▁taas	-9.82146
▁iji	-9.8222
▁contre	-9.82261
▁both	-9.82313
▁gratis	-9.82471
▁local	-9.82479
▁teo	-9.82576
ende	-9.82828
▁All	-9.83088
▁non	-9.8315
cho	-9.83184
▁noqon	-9.83209
▁these	-9.83226
▁vers	-9.83367
▁wadanda	-9.83419
▁፡፡	-9.83529
▁public	-9.83546
▁shacabka	-9.83669
▁san	-9.83732
▁Lo	-9.83768
▁mambo	-9.83875
▁beste	-9.83898
▁self	-9.83927
▁matsayin	-9.84026
▁ahayn	-9.84028
▁then	-9.84074
▁serikali	-9.84074
oo	-9.8421
ች	-9.84271
ዝ	-9.84331
▁album	-9.84334
▁Co	-9.84362
▁Bi	-9.8441
?”	-9.8445
ፍ	-9.84531
▁day	-9.8454
au	-9.84556
▁Ugu	-9.84629
▁aku	-9.84665
ላ	-9.84728
▁final	-9.84781
▁partie	-9.84788
▁otu	-9.84802
▁goed	-9.84873
▁mgbe	-9.84959
▁hana	-9.84994
▁London	-9.85148
Y	-9.85178
▁opsies	-9.85204
Afrika	-9.85283
▁number	-9.85314
▁Ama	-9.85323
▁eli	-9.85419
▁miaka	-9.85444
▁wote	-9.85481
▁wanneer	-9.85718
▁iche	-9.85728
ção	-9.85785
▁League	-9.85821
ita	-9.85826
ts	-9.86239
ju	-9.86435
▁ዓ	-9.86526
ir	-9.86585
▁Os	-9.86732
▁%	-9.86734
▁AM	-9.86942
ሩ	-9.86957
▁dis	-9.86999
▁iyi	-9.87057
▁Sh	-9.87115
▁Hierdie	-9.87125
▁Serikali	-9.87188
▁halka	-9.87279
ተ	-9.87327
▁now	-9.87371
▁After	-9.87414
Le	-9.87486
▁ሰው	-9.87535
አ	-9.87543
á	-9.87548
▁deel	-9.87602
▁Dalka	-9.87635
io	-9.87739
▁aynu	-9.87766
▁ኣ	-9.87827
▁ciidamada	-9.87935
▁aanay	-9.87938
tse	-9.8794
ngo	-9.88209
▁Ay	-9.88225
▁peut	-9.88234
▁Jesu	-9.88278
nso	-9.88286
▁bila	-9.8838
▁aysan	-9.88466
▁Om	-9.88477
▁fiican	-9.88579
▁Tu	-9.88645
▁aikin	-9.88782
▁Vir	-9.88795
▁Twitter	-9.89128
min	-9.89151
▁You	-9.89187
▁Ja	-9.8931
▁gbogbo	-9.89369
▁duniya	-9.8938
▁gesê	-9.89533
!!	-9.89541
▁ማ	-9.89589
▁kuhusu	-9.89613
▁Y	-9.89639
▁Bo	-9.89668
▁doonaa	-9.89671
▁Post	-9.89677
▁country	-9.89726
*	-9.89837
▁première	-9.89854
▁ngati	-9.89876
▁Paul	-9.89898
▁Dowladda	-9.89922
▁school	-9.8997
▁APC	-9.90001
▁eie	-9.90022
ic	-9.90039
▁foram	-9.90136
▁gani	-9.9025
▁mutum	-9.9029
ኛ	-9.9036
▁anos	-9.90522
▁sake	-9.90682
▁total	-9.90686
▁family	-9.90704
▁Radio	-9.90712
▁very	-9.90743
ée	-9.90764
kha	-9.90793
▁kwanza	-9.90927
▁Au	-9.90947
▁national	-9.90973
▁population	-9.91045
▁olu	-9.91049
▁back	-9.91102
ሪ	-9.91129
▁El	-9.91169
▁hay	-9.91301
▁grande	-9.91395
▁Ana	-9.91449
▁alle	-9.91533
▁ila	-9.91628
wi	-9.91638
ለ	-9.9165
ዉ	-9.9165
by	-9.91793
im	-9.91922
ihi	-9.92034
▁momba	-9.92139
▁yayi	-9.92176
able	-9.9226
▁ምን	-9.92276
che	-9.92324
▁mag	-9.92408
▁waan	-9.92576
elle	-9.92579
▁ciki	-9.92605
Ka	-9.9267
▁walio	-9.92731
▁የተ	-9.92739
▁Reply	-9.92787
▁kinders	-9.9283
▁just	-9.92852
ala	-9.92921
")	-9.93059
han	-9.93097
▁KA	-9.93135
▁xa	-9.9331
ማ	-9.9331
▁bakeng	-9.93377
tsa	-9.9338
war	-9.93405
|	-9.9349
▁post	-9.93503
dan	-9.93529
▁kweli	-9.93544
ኑ	-9.93551
▁kapa	-9.93554
mbo	-9.93574
ሊ	-9.93585
▁karaa	-9.93641
▁fut	-9.93659
▁mma	-9.93701
▁Di	-9.93717
▁nini	-9.93737
▁Maatsoekery	-9.93787
▁tana	-9.93985
▁lors	-9.9401
▁درس	-9.94045
ራ	-9.94138
ling	-9.94197
▁service	-9.94244
▁sano	-9.94272
▁shekara	-9.94389
▁ces	-9.94392
▁waka	-9.9441
▁aki	-9.94442
▁dink	-9.94522
▁Car	-9.94721
af	-9.94817
▁yayin	-9.94835
▁make	-9.94849
▁until	-9.95154
lik	-9.9521
▁Mr	-9.95293
▁Met	-9.9548
▁ganin	-9.95481
ቶ	-9.95488
▁base	-9.95516
▁ሰዎች	-9.95587
▁Mai	-9.95688
▁ọzọ	-9.95908
In	-9.9593
▁hakan	-9.95935
kooda	-9.95968
▁world	-9.95977
▁habari	-9.96127
▁area	-9.96162
▁International	-9.96244
▁enige	-9.96301
▁group	-9.96371
▁tan	-9.96412
▁called	-9.96505
▁did	-9.96506
▁babu	-9.96576
▁ju	-9.96743
▁wengi	-9.96756
▁Du	-9.96801
ቲ	-9.96845
▁ل	-9.969
▁jami	-9.96935
ndi	-9.96969
▁ሁሉ	-9.97045
▁akwai	-9.97126
▁kooxda	-9.97158
▁Kano	-9.972
▁wananchi	-9.97252
▁maro	-9.97257
▁Un	-9.97341
▁Uma	-9.97445
▁bara	-9.97478
▁PM	-9.9756
▁Video	-9.97574
ሮ	-9.97637
▁four	-9.97641
▁Jean	-9.9767
▁nk	-9.97786
▁mmoja	-9.97898
▁iyada	-9.97942
▁Dis	-9.97962
▁could	-9.98014
▁chifukwa	-9.98059
▁máa	-9.98091
▁pele	-9.98199
▁ngoku	-9.98248
▁batho	-9.98296
▁dié	-9.9833
▁km	-9.98356
▁hawa	-9.98546
▁UK	-9.9855
▁huis	-9.98557
▁ala	-9.98614
▁din	-9.98615
ቅ	-9.98637
yar	-9.98646
▁ó	-9.98751
▁kati	-9.98966
jo	-9.98969
ley	-9.99007
▁wêreld	-9.99054
▁indrindra	-9.99102
▁Pro	-9.99179
▁ụlọ	-9.99246
▁mpaka	-9.99318
mp	-9.99336
iyo	-9.99404
▁Muuse	-9.99512
▁jiro	-9.99618
▁hafa	-9.99719
▁since	-9.9972
▁home	-9.99743
▁fin	-9.99756
▁Waziri	-9.9986
▁West	-9.99896
▁Daawo	-9.99907
▁maamulka	-9.99973
▁hizo	-9.99995
▁ዝ	-10.0002
▁gidan	-10.0005
▁club	-10.0014
▁lapho	-10.0022
▁They	-10.0041
▁Trump	-10.0042
▁geld	-10.0051
▁wako	-10.0059
▁because	-10.0059
rin	-10.0061
▁ambaye	-10.0062
▁sobre	-10.0065
▁Q	-10.0065
▁umuntu	-10.0068
ኒ	-10.0084
heid	-10.0101
▁muddo	-10.0105
tan	-10.0106
▁kapena	-10.0106
▁هيا	-10.012
▁كان	-10.0124
▁እየ	-10.013
▁top	-10.0138
▁run	-10.014
eed	-10.0159
▁waayo	-10.016
▁see	-10.0161
ul	-10.018
▁paar	-10.018
▁huku	-10.0183
▁hand	-10.0184
▁kor	-10.0187
isa	-10.0196
▁ب	-10.0199
▁Ndi	-10.0203
▁saabsan	-10.0217
▁nos	-10.0229
▁neem	-10.0241
▁kamid	-10.0243
▁ans	-10.0244
ida	-10.0256
▁meesha	-10.0264
ow	-10.0269
▁trois	-10.027
▁Lu	-10.0273
▁Ver	-10.0286
▁Hoe	-10.0288
▁David	-10.03
▁farko	-10.0307
Ku	-10.0311
▁best	-10.0314
▁nool	-10.0316
▁waxaad	-10.0317
▁ndio	-10.0324
▁puis	-10.0325
▁zao	-10.0326
▁doonaan	-10.0331
▁city	-10.0342
tti	-10.0346
▁jiraan	-10.0349
▁end	-10.0354
▁kupata	-10.0374
▁teny	-10.0376
▁waxaanu	-10.0377
▁Hulle	-10.0394
▁Oct	-10.0396
▁guda	-10.0396
▁maisha	-10.0403
les	-10.0405
▁high	-10.0413
▁omdat	-10.0417
▁isu	-10.0422
▁جامعة	-10.0424
▁partir	-10.043
▁mere	-10.0438
▁Dans	-10.0438
▁Aanlyn	-10.0449
▁BBC	-10.0451
▁années	-10.0452
▁kuwo	-10.0459
▁His	-10.0462
▁hili	-10.048
▁con	-10.0481
»	-10.0484
▁keer	-10.0488
▁depuis	-10.0498
kiisa	-10.051
▁tout	-10.0511
▁ajili	-10.0513
▁series	-10.0521
▁noho	-10.0521
▁amene	-10.0524
▁hukumar	-10.0537
▁hau	-10.0558
▁Shi	-10.0561
▁lahayn	-10.0563
▁Maxamuud	-10.0564
▁ten	-10.0568
▁kira	-10.0577
▁kuko	-10.0582
▁FC	-10.0584
sie	-10.0585
▁በኋላ	-10.0585
▁Hay	-10.0598
▁aha	-10.0603
▁tabbatar	-10.0605
pu	-10.0605
▁James	-10.0614
izany	-10.0614
ሳ	-10.0628
▁leedahay	-10.0628
▁reg	-10.0636
▁aanlyn	-10.0638
፥	-10.0647
▁pro	-10.0656
▁Ciidamada	-10.0663
ጥ	-10.0667
▁jusqu	-10.0676
▁በዚህ	-10.0682
▁CCM	-10.0683
nye	-10.0692
▁formula	-10.0717
ll	-10.0718
ting	-10.0721
▁très	-10.073
▁ẹ	-10.0731
ọ	-10.0734
▁iets	-10.0745
▁goeie	-10.0747
die	-10.0762
▁ena	-10.0762
▁plan	-10.0766
▁sí	-10.0771
▁haki	-10.0774
ዳ	-10.0778
▁babban	-10.0784
▁Don	-10.0785
ግ	-10.0791
▁wengine	-10.0792
▁cho	-10.0797
▁six	-10.08
▁waana	-10.0803
▁following	-10.0811
▁hivi	-10.0817
▁Google	-10.084
▁yawa	-10.0845
▁cad	-10.0849
ነ	-10.0853
▁ville	-10.0853
▁Wasaaradda	-10.0854
▁qeyb	-10.0854
▁Mulungu	-10.0854
▁kasance	-10.0856
▁found	-10.0857
ara	-10.088
▁Dec	-10.0884
ran	-10.0892
▁arrimaha	-10.0892
▁English	-10.0899
nya	-10.093
▁egter	-10.0932
▁plusieurs	-10.0935
nda	-10.0936
▁Xisbiga	-10.0944
▁ayey	-10.0946
▁kungiyar	-10.0948
▁Park	-10.0958
▁North	-10.0974
tsi	-10.0975
▁ter	-10.0978
▁sama	-10.0984
▁bly	-10.0986
▁kyk	-10.0987
▁several	-10.0993
▁qabtay	-10.0993
▁hapo	-10.0998
▁music	-10.1
▁kaliya	-10.1004
ile	-10.1006
qa	-10.1011
▁million	-10.1021
ster	-10.1023
▁jama	-10.1027
▁those	-10.1028
▁dood	-10.1032
▁ubu	-10.1038
Ba	-10.1038
▁adag	-10.1041
lin	-10.1045
▁tuna	-10.1052
▁faa	-10.1053
▁yii	-10.1062
▁akan	-10.1065
▁Sai	-10.1065
ele	-10.1072
▁hi	-10.1075
▁ያለው	-10.1076
▁kudi	-10.1077
▁dé	-10.1082
ise	-10.1083
▁ናይ	-10.1111
▁hari	-10.1112
▁High	-10.1114
▁alles	-10.1122
▁asi	-10.1129
▁Ne	-10.1131
▁Nov	-10.1137
▁African	-10.114
one	-10.1142
▁ngi	-10.1144
▁ata	-10.1148
▁Shugaban	-10.1152
ayaa	-10.1155
▁Fi	-10.1155
age	-10.1165
▁Sida	-10.1166
▁يناير	-10.1168
▁mari	-10.117
▁alikuwa	-10.1172
▁አይ	-10.1176
▁bari	-10.1189
▁volgende	-10.1196
ረ	-10.1197
▁mis	-10.1199
▁biyo	-10.12
▁tsakanin	-10.1206
▁Farmaajo	-10.1223
▁Groot	-10.1226
▁released	-10.1228
▁own	-10.1242
▁ọmọ	-10.1245
▁dama	-10.1253
bar	-10.1258
▁naye	-10.1259
of	-10.126
▁Wannan	-10.1265
▁ቀን	-10.1266
▁early	-10.1267
▁show	-10.1268
▁kwaye	-10.1274
▁Mudane	-10.1276
▁Kodi	-10.128
▁mbalimbali	-10.1281
▁mafi	-10.1289
ካ	-10.1299
▁hoos	-10.1303
ria	-10.132
▁system	-10.1322
▁yau	-10.1327
▁anya	-10.1337
▁kutoa	-10.1344
▁iye	-10.1346
▁wangu	-10.1347
▁abu	-10.1351
▁yangu	-10.1354
▁zaben	-10.1356
▁College	-10.1359
▁Idan	-10.1363
▁xisbiga	-10.1364
▁seus	-10.1365
▁views	-10.1368
▁zake	-10.1376
▁last	-10.1376
▁Best	-10.1377
▁ቢ	-10.1386
▁avant	-10.1387
▁Here	-10.1393
like	-10.1393
▁More	-10.14
▁gwamnatin	-10.1406
▁chama	-10.1406
▁There	-10.1419
▁ì	-10.1421
▁jirin	-10.1423
▁jirto	-10.1423
ከ	-10.1429
▁Real	-10.1433
▁former	-10.1433
▁George	-10.144
▁akka	-10.1446
▁kun	-10.1465
▁komanso	-10.1471
▁Soomaalida	-10.1471
▁mọ	-10.1472
▁British	-10.1473
▁Sun	-10.1473
kwe	-10.1475
▁neman	-10.1477
▁khona	-10.1483
▁PDP	-10.1484
▁nako	-10.1485
▁shekarar	-10.1489
▁até	-10.1491
▁almal	-10.1499
ilay	-10.1501
▁qaban	-10.1514
▁doona	-10.1524
▁kashe	-10.153
▁point	-10.155
▁waxayna	-10.1558
▁Ontmoet	-10.1567
▁Par	-10.1571
▁wame	-10.1572
▁gemaak	-10.1579
ville	-10.1579
ika	-10.158
▁hadii	-10.1585
▁much	-10.1595
▁President	-10.1597
lwa	-10.1598
▁azo	-10.16
ak	-10.1602
▁kabisa	-10.1612
▁iki	-10.1622
mar	-10.1627
▁wanao	-10.1627
▁sonder	-10.1631
dia	-10.1632
▁how	-10.1635
▁chini	-10.1641
▁série	-10.1641
up	-10.1645
▁groupe	-10.1647
uko	-10.1649
ist	-10.1649
▁here	-10.1658
▁gudaha	-10.1661
▁عدد	-10.1662
▁social	-10.1666
▁bụrụ	-10.1677
▁isugu	-10.1688
▁LA	-10.1689
ا	-10.1692
▁kawo	-10.1695
▁played	-10.1702
▁doorashada	-10.1704
▁cid	-10.1708
▁Ethiopia	-10.1709
▁njia	-10.1714
▁muna	-10.1725
▁Waxay	-10.1726
▁x	-10.1738
▁support	-10.1739
hausa	-10.1743
▁toy	-10.1744
▁anti	-10.1748
▁single	-10.1749
▁Media	-10.1751
▁face	-10.1751
ira	-10.1757
▁ariko	-10.176
▁Peter	-10.1769
▁ክ	-10.177
▁muka	-10.1778
▁ት	-10.1782
▁William	-10.1783
▁men	-10.1787
▁sauran	-10.1789
▁ngoba	-10.1796
▁Katika	-10.1796
nimo	-10.1799
▁sheegtay	-10.1799
▁each	-10.1801
ኝ	-10.1805
....	-10.1806
ሙ	-10.1807
▁shekaru	-10.1826
▁saaray	-10.1827
▁pays	-10.1833
pha	-10.1841
▁klein	-10.1851
▁qofka	-10.1853
ngi	-10.1855
▁week	-10.1857
Sa	-10.1858
▁Europe	-10.1859
▁kartaa	-10.1867
▁Charles	-10.1873
▁وصل	-10.1875
▁ambapo	-10.1876
rd	-10.1877
▁began	-10.188
▁kupitia	-10.1882
▁wewe	-10.1885
▁fedha	-10.1888
▁tabi	-10.1888
▁yara	-10.1892
▁lacag	-10.1892
▁Volwasse	-10.1893
▁kitu	-10.1895
▁እን	-10.1898
▁hack	-10.1906
▁mbola	-10.1907
▁Maanta	-10.192
▁altyd	-10.1924
▁kusoo	-10.193
▁foto	-10.1932
▁One	-10.1939
▁Son	-10.1942
▁yakho	-10.1944
▁dagaal	-10.1946
▁hê	-10.1948
▁kawai	-10.1966
▁lafiya	-10.1968
▁sans	-10.1974
▁held	-10.1976
ዩ	-10.1978
▁ianao	-10.1979
▁ula	-10.1981
▁che	-10.1982
▁Do	-10.1984
▁kind	-10.1985
▁ማለት	-10.1986
▁moo	-10.1988
▁Federaalka	-10.1994
▁ሁኔታ	-10.2005
▁hatua	-10.201
▁Mobile	-10.202
▁hannu	-10.2025
▁iyaga	-10.203
▁በጣም	-10.2033
Re	-10.2033
▁leer	-10.2033
▁yetu	-10.2041
men	-10.2046
▁drie	-10.2049
▁ela	-10.2055
▁kutokana	-10.2057
▁uyu	-10.2059
▁Jehovah	-10.2061
▁Cumar	-10.2064
▁ብዙ	-10.2066
és	-10.2067
▁nthawi	-10.207
▁zonke	-10.2072
▁Sidoo	-10.2075
▁etsa	-10.2077
▁around	-10.2078
▁bied	-10.2088
▁large	-10.2097
▁lwe	-10.2098
▁set	-10.2098
▁yankin	-10.2104
Click	-10.2107
▁Haddii	-10.2112
ner	-10.2113
▁line	-10.2118
▁السكان	-10.2123
▁cy	-10.2124
▁ego	-10.2125
▁Jihar	-10.2147
▁Bu	-10.2156
▁Cette	-10.2162
aal	-10.2162
▁dhinaca	-10.2165
▁shaqo	-10.217
▁India	-10.2174
▁ጉዳይ	-10.2176
▁waki	-10.2177
gan	-10.2183
▁Aba	-10.2185
▁ነበር	-10.2186
▁get	-10.2186
▁sit	-10.2187
▁Modimo	-10.2191
▁mwana	-10.2193
▁Nigeria	-10.2197
▁onde	-10.2197
ባ	-10.2199
ies	-10.2199
▁off	-10.2203
▁zote	-10.2203
▁Ye	-10.2208
▁still	-10.221
▁mety	-10.2213
ቶች	-10.2218
▁dhigay	-10.2219
▁Feb	-10.2231
▁sì	-10.2246
▁staan	-10.2251
cu	-10.2257
▁nyingi	-10.227
▁Ary	-10.2277
▁watoto	-10.2281
▁nafasi	-10.2282
▁القدم	-10.2283
▁Top	-10.2298
▁even	-10.2299
▁ف	-10.2303
▁took	-10.2304
▁samar	-10.2306
▁Ar	-10.2311
ዲ	-10.2317
▁bw	-10.2321
▁General	-10.2322
op	-10.2323
▁taarifa	-10.2324
kana	-10.2326
▁lokaci	-10.2336
▁should	-10.2339
▁Kuma	-10.2345
▁main	-10.2345
dy	-10.236
▁omwe	-10.2365
▁በላይ	-10.2366
▁ኢትዮጵያ	-10.2372
des	-10.2373
▁እስከ	-10.2376
▁حسب	-10.2379
▁kafa	-10.2381
▁career	-10.2383
.—	-10.2416
▁muhimu	-10.2418
ções	-10.242
▁bwa	-10.2429
▁».	-10.2429
ዎ	-10.2435
▁cin	-10.2443
▁Maamulka	-10.2444
▁maji	-10.2447
ihii	-10.245
ck	-10.245
▁Uku	-10.2466
ሲ	-10.2476
▁station	-10.2479
▁waxba	-10.2488
▁Zi	-10.2489
▁fotoana	-10.2489
▁Marka	-10.249
▁tsaro	-10.249
▁glo	-10.2495
▁avait	-10.2506
▁pre	-10.2506
if	-10.2507
van	-10.2509
lé	-10.251
ela	-10.2515
▁House	-10.2515
▁yoku	-10.2518
▁fois	-10.2526
▁party	-10.2533
▁village	-10.2538
▁lẹ	-10.2538
▁niile	-10.254
▁madax	-10.2545
▁down	-10.2552
▁musamman	-10.2556
▁rashin	-10.2561
▁Canada	-10.2563
▁Um	-10.2574
▁selfs	-10.2578
▁international	-10.2579
mm	-10.2581
▁mark	-10.2586
▁SA	-10.2591
ait	-10.2592
▁náà	-10.2596
tes	-10.26
▁yote	-10.2602
▁version	-10.2602
▁expand	-10.2604
▁fomba	-10.2609
í	-10.2618
▁plek	-10.2625
▁Qaranka	-10.263
▁gi	-10.2635
▁mmadụ	-10.2637
▁Raha	-10.2649
Mu	-10.265
▁temps	-10.2651
▁hadal	-10.2656
▁kuya	-10.2659
ጋ	-10.2665
mente	-10.2671
▁deegaanka	-10.2676
▁ro	-10.2681
▁nta	-10.2683
▁mbali	-10.2688
▁good	-10.2692
▁zavatra	-10.2707
▁aliye	-10.2718
isi	-10.2722
▁ዓመት	-10.2725
▁nodig	-10.2727
ዊ	-10.2729
▁Kan	-10.273
▁labarai	-10.273
▁Yo	-10.273
▁satria	-10.2733
iya	-10.2737
Shabaab	-10.2738
▁president	-10.2738
▁However	-10.2741
ታት	-10.2742
▁hoy	-10.2742
▁ነበር።	-10.2752
per	-10.2758
▁Com	-10.276
▁dhaqan	-10.276
▁news	-10.2761
▁company	-10.2763
!”	-10.2764
▁bien	-10.2764
▁Bar	-10.2771
▁Jul	-10.2778
▁live	-10.278
▁wọ́n	-10.2781
ini	-10.2782
▁dal	-10.2783
adii	-10.2784
▁hin	-10.2787
▁nyuma	-10.2797
▁binêre	-10.2797
▁sehemu	-10.2798
▁አል	-10.2813
▁vind	-10.2819
▁terug	-10.2833
▁gacanta	-10.2839
iga	-10.2839
▁dhulka	-10.284
▁age	-10.2844
▁vrou	-10.2844
▁Ca	-10.2844
▁wenye	-10.2847
▁ያለ	-10.2852
▁ዘ	-10.2858
▁bora	-10.2864
▁sub	-10.2871
▁porn	-10.2872
▁stel	-10.2876
nge	-10.2878
▁Kara	-10.2882
▁አሁን	-10.2884
▁sannan	-10.2884
▁የሚያ	-10.2887
▁Jun	-10.2887
▁gudanar	-10.2889
lla	-10.2891
▁Kama	-10.2895
▁nna	-10.2898
▁Robert	-10.2898
▁asa	-10.29
▁lama	-10.2914
▁noku	-10.2928
and	-10.2929
keeda	-10.2931
▁labaran	-10.2931
▁suite	-10.2932
▁inu	-10.2937
▁nama	-10.2938
▁bukatar	-10.294
▁due	-10.2948
▁karaan	-10.2955
▁dake	-10.2959
▁labaad	-10.2959
▁bata	-10.2962
▁heli	-10.2964
▁munthu	-10.2967
▁faire	-10.2972
▁هوا	-10.2973
▁Bay	-10.2976
xa	-10.2981
▁terwyl	-10.2984
▁Street	-10.2985
▁kuwaas	-10.2996
▁dhamaan	-10.3001
▁East	-10.3002
▁rehefa	-10.3004
adaha	-10.3012
▁maha	-10.3014
▁members	-10.3015
▁Biixi	-10.3015
▁Israel	-10.3015
▁ban	-10.3017
▁notamment	-10.3018
▁seo	-10.3018
▁America	-10.3019
▁noqday	-10.3022
▁Of	-10.3026
▁bá	-10.3028
▁Har	-10.3033
▁Dadka	-10.3033
▁left	-10.3041
▁cyane	-10.3042
▁dhanka	-10.3046
▁zaman	-10.3049
▁leurs	-10.305
▁ex	-10.3052
،	-10.3053
thu	-10.3059
dos	-10.3061
▁iṣẹ	-10.3061
▁Po	-10.3061
▁children	-10.3062
ite	-10.3062
▁tem	-10.307
▁kulan	-10.3075
▁Party	-10.3076
▁band	-10.3085
▁golaha	-10.3086
▁qaranka	-10.3088
▁muhiim	-10.309
▁Group	-10.3096
▁plaas	-10.3096
▁MA	-10.3096
▁Mareykanka	-10.3097
kho	-10.3098
Ha	-10.31
▁match	-10.3103
▁Zo	-10.3106
▁mkuu	-10.3107
dza	-10.3113
ai	-10.3117
▁መንገድ	-10.3121
▁yimid	-10.3122
▁afaka	-10.3126
▁mama	-10.3131
▁wasan	-10.3134
▁dhashay	-10.3136
▁sex	-10.3136
▁baadhi	-10.3141
den	-10.3141
▁ngu	-10.3146
▁maamul	-10.3147
▁Malawi	-10.3147
▁Amurka	-10.3149
▁daardie	-10.3151
▁bado	-10.3152
▁isan	-10.3155
▁vol	-10.3175
con	-10.3179
▁download	-10.3183
▁kabla	-10.3184
tar	-10.3185
▁kosa	-10.3204
▁Mid	-10.3208
saa	-10.3209
▁Club	-10.3217
▁labo	-10.3218
▁Ru	-10.3218
▁inter	-10.3222
▁Mas	-10.3224
din	-10.3224
▁monde	-10.3229
▁akwụkwọ	-10.3235
▁kyau	-10.3236
▁degmada	-10.3237
▁production	-10.3248
▁madaxweynaha	-10.3253
▁እንደሚ	-10.3253
▁Michael	-10.3254
▁women	-10.3265
ሱ	-10.3266
▁police	-10.3267
▁iyagoo	-10.3268
▁nda	-10.3269
ale	-10.3272
▁kayan	-10.3275
▁Android	-10.3276
▁power	-10.328
▁م	-10.3285
dda	-10.3286
▁wuxuuna	-10.3287
▁born	-10.3288
▁autres	-10.3296
ين	-10.3297
▁Af	-10.3301
▁dawladda	-10.3309
▁afọ	-10.3309
▁Download	-10.3314
▁ago	-10.3318
▁Une	-10.3318
▁kwani	-10.3318
▁Vi	-10.3321
▁Wararka	-10.3325
▁Max	-10.3326
▁bụla	-10.3331
▁kuphela	-10.3332
▁wetu	-10.3344
▁Sha	-10.3348
▁member	-10.3349
▁ndiye	-10.3352
rwa	-10.3362
▁avoir	-10.3364
Die	-10.3368
kin	-10.3376
▁gida	-10.3376
▁bana	-10.3382
nde	-10.3387
▁musu	-10.3388
ሕ	-10.3399
▁hicho	-10.3399
▁Guddoomiyaha	-10.3402
ሎ	-10.3404
▁ን	-10.3405
▁anga	-10.342
▁gwamnati	-10.342
▁viongozi	-10.3427
▁original	-10.343
▁kooban	-10.3432
▁\	-10.344
rs	-10.3442
▁የኢትዮጵያ	-10.3447
▁dhammaan	-10.3456
nimada	-10.3457
Andriamanitra	-10.346
▁sanya	-10.3463
▁akiwa	-10.3468
▁መካከል	-10.3468
▁leeyihiin	-10.348
▁taba	-10.3488
http	-10.3497
▁Jehova	-10.3498
▁Alle	-10.3503
▁jambo	-10.3506
▁dhexe	-10.351
▁wala	-10.3521
▁Dubai	-10.3522
▁hoose	-10.3523
▁weg	-10.3528
▁tsarin	-10.3528
▁encore	-10.3529
▁eneo	-10.3529
▁qaatay	-10.3538
▁mimi	-10.3542
▁huduma	-10.3543
uu	-10.356
▁Comments	-10.3562
▁helay	-10.3564
▁ደረጃ	-10.3567
▁nyumba	-10.3571
▁King	-10.3573
▁Habari	-10.3578
▁ከፍተኛ	-10.359
▁vile	-10.3593
▁tour	-10.3594
▁waye	-10.3604
▁important	-10.3611
▁Arrimaha	-10.3621
▁kii	-10.3621
ky	-10.3622
▁xilka	-10.3626
▁iliyo	-10.3636
▁Sin	-10.3638
▁based	-10.3639
ive	-10.3642
▁taagan	-10.365
▁wuu	-10.365
▁another	-10.3655
▁position	-10.3658
▁quando	-10.3658
▁voel	-10.366
▁Ahmed	-10.3661
▁Iran	-10.3662
▁cas	-10.3674
▁intii	-10.3674
▁kutumia	-10.368
▁peu	-10.368
▁»,	-10.3682
ek	-10.3683
▁dadkii	-10.3685
▁political	-10.3687
▁hele	-10.3688
▁ndetse	-10.3694
▁kamata	-10.3694
▁dinge	-10.3694
izy	-10.3699
▁gehad	-10.3703
▁Xuseen	-10.3703
▁moyo	-10.3706
ista	-10.3706
ray	-10.3708
mer	-10.3713
▁gare	-10.3714
▁play	-10.3718
yu	-10.3723
▁parte	-10.3725
nce	-10.3735
Ta	-10.3735
kuwa	-10.3735
▁started	-10.374
▁binne	-10.3741
▁gay	-10.3744
ac	-10.3747
▁received	-10.3751
▁ባ	-10.3752
line	-10.3754
▁በመ	-10.3754
▁contra	-10.3755
sta	-10.3756
▁And	-10.3763
▁fito	-10.3768
እ	-10.3775
▁noo	-10.3776
▁bay	-10.3777
▁song	-10.378
▁maalin	-10.3786
ሚ	-10.3787
ዱ	-10.3792
▁French	-10.38
▁indray	-10.3803
▁probeer	-10.3804
▁radio	-10.3807
▁ከተማ	-10.3814
▁huko	-10.3815
▁Yi	-10.3815
ቱን	-10.3817
▁daarvan	-10.3822
▁yace	-10.3823
▁again	-10.3825
س	-10.3829
dhi	-10.383
!!!	-10.383
▁Baarlamaanka	-10.3835
▁lina	-10.3841
▁mort	-10.3842
▁Cup	-10.3844
▁via	-10.3845
▁iemand	-10.3847
▁yawan	-10.3848
▁grand	-10.3848
▁”	-10.3849
▁Afrikaans	-10.3852
▁book	-10.3857
▁soit	-10.3857
▁Bonus	-10.3868
▁lake	-10.3869
▁weli	-10.3871
▁points	-10.3872
▁Air	-10.3872
▁vaka	-10.3885
▁bisa	-10.3889
▁dambe	-10.3891
ደ	-10.3892
▁É	-10.3897
▁mesmo	-10.3898
▁Her	-10.3898
▁within	-10.39
መ	-10.3901
▁pad	-10.3901
▁wurin	-10.3907
ሞ	-10.3916
▁Salaam	-10.3926
);	-10.3929
ቡ	-10.3929
▁wie	-10.3932
▁sidaas	-10.3933
▁tokony	-10.3934
▁imi	-10.3936
▁ካ	-10.3937
▁fún	-10.3939
Yan	-10.3941
▁mee	-10.3945
▁along	-10.395
▁sharci	-10.3953
ز	-10.3954
▁sio	-10.3957
ura	-10.3958
ig	-10.396
▁jirta	-10.3972
▁...]	-10.3973
gii	-10.3978
▁انسان	-10.3993
▁Uu	-10.3996
dzi	-10.3997
▁cutar	-10.3998
▁Wo	-10.3999
▁bin	-10.3999
▁saa	-10.4002
zu	-10.4009
▁aina	-10.4009
ኖ	-10.4013
▁Maria	-10.4015
▁yeye	-10.4017
taka	-10.4019
▁Soomaali	-10.4019
▁pale	-10.4024
▁primeiro	-10.4032
▁amesema	-10.4036
▁real	-10.4039
▁አቶ	-10.4039
▁hakuna	-10.404
▁Soek	-10.4043
ي	-10.4046
das	-10.4048
▁halkaas	-10.4049
▁must	-10.4053
▁dieselfde	-10.4053
▁Zanzibar	-10.4054
enda	-10.4054
▁Paulo	-10.4057
▁tous	-10.4064
▁dara	-10.4064
▁Asali	-10.4066
ere	-10.4066
▁oge	-10.4073
dha	-10.4074
▁gacan	-10.4094
ፋ	-10.4102
end	-10.4104
▁cya	-10.4108
▁kafin	-10.4111
▁atao	-10.4111
▁Daga	-10.4115
▁fana	-10.4118
autres	-10.412
▁German	-10.4121
▁Black	-10.4126
▁football	-10.4127
▁mise	-10.413
▁kwenda	-10.413
▁tša	-10.4132
▁porno	-10.4136
▁nipa	-10.414
▁es	-10.414
▁madaxweyne	-10.4142
▁ahi	-10.4143
▁Ele	-10.4143
ጽ	-10.4145
▁saka	-10.415
▁Galmudug	-10.4152
ቢ	-10.4153
▁Super	-10.4155
▁nyingine	-10.4156
▁Read	-10.4157
▁jir	-10.4161
▁rasmi	-10.4167
▁small	-10.4171
▁kuka	-10.4172
▁reeds	-10.418
▁named	-10.4181
nji	-10.4182
▁dilay	-10.4183
Ni	-10.4188
ono	-10.4191
▁kare	-10.4192
▁andro	-10.4199
▁Après	-10.42
zwa	-10.42
▁umu	-10.4204
▁اتعمل	-10.4223
▁Aug	-10.4226
▁ŵa	-10.4228
▁death	-10.4231
ዛ	-10.4234
▁ndiyo	-10.4239
▁sheria	-10.4246
▁cidade	-10.425
▁Xukuumadda	-10.4251
يه	-10.4252
▁Aadan	-10.4252
▁Red	-10.4258
▁daban	-10.4259
لكره	-10.4261
▁far	-10.4263
tso	-10.4264
▁mpya	-10.4265
▁gbe	-10.4266
▁taasi	-10.4266
▁nooit	-10.4267
▁five	-10.4273
▁Washington	-10.429
ham	-10.4295
▁vita	-10.4295
▁anatin	-10.4297
▁ozi	-10.43
ab	-10.4311
▁Mohamed	-10.4312
▁Madrid	-10.4315
▁wale	-10.4317
▁okanye	-10.4322
▁ምክንያት	-10.4324
▁Hi	-10.4326
▁without	-10.4327
▁kí	-10.4327
▁zomwe	-10.4329
▁eku	-10.4336
ila	-10.4338
▁siyaasadeed	-10.4339
ring	-10.4342
▁dois	-10.4344
▁maxaa	-10.4344
▁warm	-10.4345
م	-10.4346
twitter	-10.4349
ism	-10.4349
▁Lagu	-10.435
▁deg	-10.435
▁Chinese	-10.4354
▁case	-10.4355
toa	-10.4357
▁sodat	-10.4357
▁uko	-10.436
▁inligting	-10.4365
▁gihe	-10.4365
▁vaovao	-10.4371
ባቸው	-10.4376
▁manana	-10.4376
▁vari	-10.4376
▁kumu	-10.4384
":"	-10.4384
my	-10.4385
Mo	-10.4388
ትን	-10.4391
▁raak	-10.4393
iisul	-10.4394
ker	-10.4395
▁fo	-10.4399
▁mun	-10.4399
▁Ben	-10.44
izay	-10.4402
▁ብሎ	-10.4412
▁www	-10.4413
can	-10.4414
▁ngwa	-10.4415
ቦ	-10.4417
▁different	-10.4419
▁gedoen	-10.4428
▁ሥራ	-10.4432
▁Plus	-10.4433
▁days	-10.4436
val	-10.4437
eau	-10.444
don	-10.4441
▁Ibrahim	-10.4443
▁kudin	-10.4444
▁side	-10.4447
ano	-10.4449
ux	-10.445
▁koop	-10.4455
▁shalay	-10.4462
▁Maraykanka	-10.4466
▁Thomas	-10.4469
▁nouveau	-10.4471
▁عن	-10.4474
ك	-10.4476
▁nka	-10.4482
▁cours	-10.449
▁wadanka	-10.4492
▁Mac	-10.4494
▁Martin	-10.4497
▁right	-10.45
$	-10.4503
▁maa	-10.451
▁bwino	-10.451
ted	-10.4511
ayaan	-10.4514
▁shine	-10.4514
▁major	-10.4522
▁kaas	-10.4523
“	-10.4526
tin	-10.4527
▁town	-10.4528
nin	-10.4531
▁depois	-10.4533
▁County	-10.4537
▁history	-10.4542
▁dira	-10.4545
▁Joseph	-10.4555
▁haholo	-10.4555
▁manier	-10.4556
▁ዓለም	-10.4558
▁Japan	-10.456
▁dhidi	-10.4561
▁owo	-10.4563
▁እየተ	-10.4571
▁shirka	-10.4571
▁Music	-10.4572
▁njalo	-10.4574
▁uta	-10.4574
▁opsie	-10.4586
Wa	-10.4586
▁helo	-10.4586
▁izinto	-10.4587
ger	-10.4589
▁steeds	-10.459
▁If	-10.4595
▁dus	-10.46
▁lyk	-10.4604
▁jana	-10.4606
▁‹‹	-10.4607
▁አዲስ	-10.4608
▁source	-10.4616
▁know	-10.4619
▁program	-10.462
corp	-10.4624
▁When	-10.4626
Al	-10.4631
ኩ	-10.4633
▁Union	-10.4638
▁Los	-10.464
mbu	-10.464
▁served	-10.4641
ሰ	-10.4642
▁swart	-10.4646
▁umsebenzi	-10.4646
▁baka	-10.4648
▁""	-10.4648
▁awood	-10.4649
▁Kana	-10.4658
▁soek	-10.4659
▁Gratis	-10.466
▁vo	-10.4663
▁bring	-10.4665
ação	-10.4667
▁England	-10.4676
span	-10.4682
▁magana	-10.4684
▁praat	-10.4686
ም።	-10.4687
▁tilmaamay	-10.4694
▁moes	-10.4697
▁lees	-10.4698
▁ከም	-10.4698
▁ada	-10.4701
▁ọtụtụ	-10.4704
▁During	-10.4706
res	-10.4709
▁^	-10.4711
▁nguvu	-10.4719
▁saison	-10.4719
taa	-10.4722
born	-10.4722
▁Jehofa	-10.4723
▁labarin	-10.4724
▁include	-10.4725
▁Wasiir	-10.4725
}	-10.4726
▁moins	-10.4728
▁KARANTA	-10.4728
mbe	-10.4734
▁anao	-10.4735
▁kasashen	-10.4735
▁nang	-10.4737
▁ምስ	-10.4742
▁IN	-10.4742
▁àti	-10.4747
▁ሲሆን	-10.4755
ut	-10.4759
▁centre	-10.4759
▁Day	-10.476
▁phakathi	-10.4763
▁published	-10.4768
▁Louis	-10.4769
▁next	-10.4771
▁lazima	-10.4772
▁Des	-10.4774
▁waliba	-10.4775
▁vie	-10.4776
▁እቲ	-10.4783
ede	-10.4791
مجره	-10.4798
▁order	-10.4799
▁sanda	-10.48
▁Australia	-10.4801
▁`	-10.4802
▁nabad	-10.4808
▁bal	-10.4812
▁record	-10.4812
▁manyan	-10.4815
▁dhacday	-10.4815
teen	-10.4821
▁{	-10.4822
▁já	-10.4822
▁caalamka	-10.4824
▁suas	-10.4824
▁መሆኑን	-10.4828
▁located	-10.4829
▁Bank	-10.4831
▁But	-10.4832
▁simu	-10.4833
▁ambazo	-10.4838
▁need	-10.4845
adu	-10.485
▁guerre	-10.4853
▁mbere	-10.4853
▁sendo	-10.4854
▁came	-10.4855
say	-10.4855
ሌ	-10.4861
ber	-10.4863
KA	-10.4867
▁Ihe	-10.4872
▁form	-10.4877
▁zinthu	-10.4878
▁primeira	-10.4881
▁River	-10.4883
▁shir	-10.4884
و	-10.4887
baar	-10.4894
▁mbili	-10.4895
▁sugan	-10.4895
▁History	-10.4904
ë	-10.491
sy	-10.4915
▁wel	-10.4917
▁ré	-10.492
▁wadannan	-10.4927
fika	-10.4927
▁kune	-10.4927
sse	-10.4931
▁anali	-10.4937
hla	-10.494
inta	-10.4941
▁taal	-10.4945
▁aqoon	-10.4945
▁Ndị	-10.4947
▁mkubwa	-10.4948
▁eyi	-10.4951
▁shaqada	-10.4952
▁بتتبع	-10.4954
▁majalisar	-10.4955
▁development	-10.4958
dar	-10.496
▁available	-10.496
oge	-10.4962
ion	-10.4967
▁Berbera	-10.4972
▁aos	-10.4973
▁Pour	-10.498
▁century	-10.4984
umma	-10.4992
","	-10.4992
▁feela	-10.4995
legit	-10.5
▁kui	-10.5008
▁ikiwa	-10.5008
ዚ	-10.5012
▁uusan	-10.5016
▁vanhu	-10.5016
lan	-10.5016
▁Guud	-10.5018
▁kerk	-10.5019
▁xarunta	-10.502
▁veral	-10.5026
nes	-10.5032
sii	-10.5038
uma	-10.5041
▁Grand	-10.5049
▁hasa	-10.5049
▁Meisies	-10.5051
▁dhowr	-10.5051
▁ruwa	-10.5051
▁iney	-10.5051
▁isika	-10.5052
››	-10.5054
▁jinsi	-10.5054
▁እንዲሁም	-10.5057
ቴ	-10.5059
▁Advertensies	-10.506
▁ወ	-10.5062
▁law	-10.5062
ure	-10.5068
▁durante	-10.5074
om	-10.5075
▁socday	-10.5076
▁Abuja	-10.5077
▁ciidanka	-10.5078
hana	-10.508
▁kube	-10.5082
▁lieu	-10.5083
aanka	-10.509
▁general	-10.5096
qu	-10.5098
▁diyaar	-10.5104
ata	-10.5104
▁ụzọ	-10.511
▁lahaayeen	-10.511
▁dalk	-10.5111
▁Yuusuf	-10.5112
▁usoro	-10.5117
▁kuli	-10.5118
▁bya	-10.512
▁DUBA	-10.5124
pirenena	-10.5129
▁construction	-10.513
▁Mheshimiwa	-10.513
De	-10.5131
▁First	-10.5132
▁buu	-10.5137
▁général	-10.514
▁Amma	-10.514
▁በሚ	-10.5144
More	-10.5146
▁zava	-10.5151
▁Xaaji	-10.5154
▁ainda	-10.516
iro	-10.5164
▁lekker	-10.5165
▁منتخب	-10.5165
▁class	-10.5166
kar	-10.5172
enye	-10.5172
▁shirin	-10.5175
▁hankali	-10.5175
▁services	-10.5175
▁ọkụ	-10.5179
▁kuona	-10.5182
▁début	-10.5187
▁Jo	-10.5187
▁skryf	-10.5191
▁using	-10.5194
Si	-10.5195
▁Mei	-10.52
▁Aan	-10.5206
▁français	-10.5211
▁madaxda	-10.5212
▁beter	-10.5213
▁Key	-10.5215
uk	-10.5217
lle	-10.5221
▁eers	-10.5223
funa	-10.5225
▁bada	-10.5228
▁kura	-10.5228
▁forces	-10.5234
▁indlela	-10.5234
▁grond	-10.5236
▁ካብ	-10.5242
▁beteken	-10.5248
▁pendant	-10.5252
▁money	-10.5258
▁mutanen	-10.5258
▁vertel	-10.526
▁tọn	-10.526
tsy	-10.526
▁በፊት	-10.5261
▁verskillende	-10.5261
▁hizi	-10.5262
▁እንጂ	-10.5268
▁gari	-10.5272
▁neng	-10.5273
▁garin	-10.5277
▁የመ	-10.5278
▁taron	-10.5286
Me	-10.5287
▁nisy	-10.5288
▁jin	-10.5288
▁DA	-10.5304
▁vra	-10.5304
▁Baba	-10.5309
ሻ	-10.5309
▁Hu	-10.531
▁KWA	-10.5312
▁está	-10.5314
▁nombre	-10.5315
▁lahayd	-10.5315
▁Wuxuu	-10.5316
▁house	-10.5316
▁building	-10.5316
awa	-10.5318
▁sera	-10.5318
ão	-10.5319
▁tofauti	-10.5322
▁Dia	-10.5322
▁xun	-10.5322
ary	-10.5332
▁faha	-10.5334
▁Apr	-10.5335
▁wayar	-10.5335
▁maadaama	-10.5335
▁built	-10.5338
▁dhow	-10.5339
▁Amin	-10.5341
▁uNkulunkulu	-10.5341
▁ت	-10.5344
ዶ	-10.5346
▁outros	-10.5346
▁j	-10.5352
▁zvino	-10.5352
▁kina	-10.5354
▁roa	-10.5359
té	-10.5361
Ek	-10.5364
▁ume	-10.5375
▁siyasa	-10.5375
nzi	-10.5376
▁على	-10.538
ex	-10.5382
eji	-10.5388
▁ná	-10.5391
▁meeste	-10.5391
▁firenena	-10.5393
▁hae	-10.5399
▁titre	-10.5405
ቸው	-10.5407
▁→	-10.5407
▁sameeyay	-10.5416
▁São	-10.5422
▁maeneo	-10.5423
cy	-10.5429
gen	-10.543
gar	-10.543
isha	-10.5439
▁seker	-10.5442
▁wazi	-10.5444
▁dollar	-10.5444
▁With	-10.545
rie	-10.5451
▁full	-10.5452
▁capital	-10.5453
▁biashara	-10.5459
▁እያ	-10.5461
▁Porn	-10.5461
▁ቤተ	-10.5465
▁Lakini	-10.5468
eyn	-10.5469
▁karkashin	-10.5472
▁today	-10.5473
tani	-10.5476
▁Taifa	-10.5478
▁€	-10.548
▁speel	-10.5486
▁مجره	-10.5486
▁vroue	-10.5487
▁timu	-10.5489
▁win	-10.5489
▁መንግሥት	-10.5493
▁gagwe	-10.5501
ቕ	-10.5509
▁UN	-10.5509
▁ayi	-10.5514
▁Xildhibaan	-10.5515
▁Hata	-10.5516
▁Ngo	-10.5517
▁kuji	-10.5518
▁sameeyo	-10.552
▁አለ	-10.5522
▁father	-10.5524
iwe	-10.5531
”,”	-10.5531
phi	-10.5532
▁lokhu	-10.5536
▁Uganda	-10.5542
▁doonto	-10.5543
▁yan	-10.5545
ness	-10.5547
▁prys	-10.5548
▁inayo	-10.5549
▁style	-10.5551
idade	-10.5553
▁mobile	-10.5557
▁kwake	-10.5562
nje	-10.5562
art	-10.5562
car	-10.5566
ጭ	-10.5569
zwe	-10.5577
ሃ	-10.5577
nie	-10.5581
ወ	-10.5585
▁community	-10.5588
ese	-10.5589
▁included	-10.5593
▁Pe	-10.5594
▁igu	-10.5599
▁takarar	-10.5601
▁gara	-10.5602
▁qaado	-10.5606
ando	-10.5607
time	-10.5609
▁ngenxa	-10.5614
ate	-10.5616
ጅ	-10.5617
▁ò	-10.5618
▁third	-10.5621
▁sosai	-10.5622
▁dalalka	-10.5628
taan	-10.5628
▁skool	-10.5629
▁Jamhuuriyadda	-10.563
▁videos	-10.5637
▁lè	-10.5638
▁Health	-10.564
ngu	-10.5641
▁ሆነ	-10.5642
▁type	-10.5653
▁Center	-10.5662
▁among	-10.5669
▁half	-10.5673
▁lank	-10.5673
▁kiasi	-10.5674
▁Manchester	-10.568
▁principal	-10.5685
▁cewar	-10.5686
▁kule	-10.5686
ane	-10.5686
dra	-10.5694
▁ቅዱስ	-10.5697
hin	-10.5698
▁Kaduna	-10.5702
▁kukhala	-10.5702
▁sidaa	-10.5705
▁ቦታ	-10.5708
▁Kodwa	-10.5714
eg	-10.5715
▁blog	-10.5716
▁Con	-10.5729
▁kugira	-10.5729
▁baki	-10.5731
▁voa	-10.5731
▁ምንም	-10.574
▁region	-10.574
▁Sam	-10.5747
▁jamii	-10.5749
▁ለማ	-10.5752
▁dunida	-10.5754
▁quatre	-10.5756
iri	-10.5758
▁politique	-10.5761
▁Ou	-10.5762
nte	-10.5764
ier	-10.5765
tro	-10.5765
▁sheegeen	-10.5767
▁Yurub	-10.5773
▁boek	-10.5774
▁vandag	-10.5784
▁rwa	-10.5787
▁wee	-10.5788
▁went	-10.5792
▁ሆኖ	-10.5796
▁Wax	-10.5798
ẹ	-10.5802
▁wrote	-10.5803
▁araka	-10.5811
▁Art	-10.5812
▁ngaphandle	-10.5812
daan	-10.5814
▁Hack	-10.5816
▁uchaguzi	-10.5817
▁mbele	-10.5817
ቃ	-10.5818
▁mal	-10.5822
▁chake	-10.5826
▁vizuri	-10.5826
▁zvi	-10.5827
▁nu	-10.5835
▁beesha	-10.5842
▁Nairobi	-10.5842
▁karto	-10.5843
▁avuga	-10.5844
▁Ri	-10.5846
▁cheats	-10.5846
▁wà	-10.5846
rada	-10.5847
▁Central	-10.5848
▁daray	-10.5849
ding	-10.5855
▁moontlik	-10.5857
ị	-10.5857
▁Shacabka	-10.5867
▁nahay	-10.5868
▁sababta	-10.5883
▁design	-10.5885
izao	-10.5887
▁verander	-10.5897
▁games	-10.5897
ebe	-10.5899
▁military	-10.5899
▁ran	-10.5901
▁lala	-10.5904
eyso	-10.5904
▁halkan	-10.5909
▁mong	-10.5909
▁uwezo	-10.591
eur	-10.592
▁rya	-10.5927
ari	-10.5931
▁abụọ	-10.5937
▁Abu	-10.5941
▁vez	-10.5942
iko	-10.5944
▁yenye	-10.5945
▁Baie	-10.5945
▁የአ	-10.5958
▁بتاريخ	-10.5962
▁pode	-10.5962
ées	-10.5967
▁fim	-10.5973
▁ከዚህ	-10.5973
▁Brasil	-10.5973
▁times	-10.5974
▁role	-10.5976
gara	-10.598
▁Ji	-10.5988
gal	-10.5989
▁become	-10.5989
▁région	-10.599
▁الاكتشاف	-10.5992
▁period	-10.5993
▁often	-10.5997
▁Company	-10.5998
▁Mwenyekiti	-10.5999
soo	-10.6
▁business	-10.6003
▁tayari	-10.6003
▁Ina	-10.6005
Ra	-10.6005
▁iga	-10.6007
▁guul	-10.6009
▁ahaayeen	-10.6012
▁every	-10.6019
▁Kala	-10.602
▁qaadan	-10.6022
▁karanta	-10.6023
▁sud	-10.6026
▁r	-10.6026
▁président	-10.6029
nka	-10.604
▁late	-10.6041
yey	-10.6045
nsu	-10.6055
▁NY	-10.6056
▁kokoa	-10.6058
ጫ	-10.6061
▁Istanbul	-10.6061
▁upande	-10.6066
▁donc	-10.6066
▁bad	-10.6068
▁Mun	-10.6071
▁birnin	-10.6073
▁come	-10.6077
▁Ciidanka	-10.6081
▁besluit	-10.6084
▁few	-10.6084
▁White	-10.6088
ፈ	-10.6099
▁devient	-10.6099
▁shan	-10.61
▁motho	-10.6101
▁após	-10.6104
▁Mark	-10.6109
tel	-10.6111
▁European	-10.6113
▁mwenye	-10.6114
▁Muhammad	-10.6114
▁Toe	-10.6116
▁አበባ	-10.6118
tt	-10.612
ተው	-10.6121
dag	-10.6125
tion	-10.6133
ils	-10.6135
▁nord	-10.6143
▁በማ	-10.6147
▁zamani	-10.6148
▁Mais	-10.6148
▁láti	-10.6151
▁Koma	-10.6155
uri	-10.6158
▁halin	-10.616
ኔ	-10.6163
▁CD	-10.6166
Ọ	-10.6167
legitnghausa	-10.6167
▁lehibe	-10.617
▁elu	-10.6172
▁Minister	-10.6178
▁obi	-10.618
▁mkpa	-10.6181
▁lasa	-10.6183
sin	-10.6185
▁isa	-10.6186
ف	-10.6187
▁kusa	-10.6189
▁ናቸው	-10.619
▁Adam	-10.6192
▁gaaray	-10.6193
▁slegs	-10.6196
▁led	-10.6196
▁Rio	-10.6196
▁put	-10.6202
▁mooi	-10.6208
era	-10.621
▁saba	-10.6212
▁sharciga	-10.6213
▁rona	-10.6219
may	-10.6222
▁ሳይ	-10.6229
▁Richard	-10.6231
ler	-10.6232
▁እንዲህ	-10.6233
▁muito	-10.6235
▁tempo	-10.6238
▁idin	-10.6244
▁mwisho	-10.6246
less	-10.6248
ken	-10.625
▁naga	-10.6255
ola	-10.6255
▁Turkiga	-10.6256
▁Marekani	-10.6256
▁أ	-10.626
▁zabe	-10.6261
▁الاحصا	-10.6262
ዬ	-10.6263
▁shawara	-10.6263
aux	-10.6264
▁ወቅት	-10.6266
tor	-10.6266
▁others	-10.6269
▁mẹ	-10.627
nsa	-10.6274
▁nayo	-10.6275
▁Church	-10.6275
ጸ	-10.6277
ang	-10.6278
▁Caasimada	-10.6281
▁Association	-10.6283
▁Road	-10.6291
▁tydens	-10.6294
▁dhib	-10.6299
ré	-10.6299
▁kalena	-10.6304
▁dhinac	-10.6309
▁ይህን	-10.631
▁head	-10.631
ali	-10.631
qui	-10.6311
ات	-10.6312
▁ils	-10.6312
▁sin	-10.6315
▁dhaqaale	-10.6315
▁Bill	-10.6317
▁aadan	-10.6323
être	-10.6331
.”—	-10.6331
▁manhajar	-10.6333
gwa	-10.6337
▁heer	-10.6339
▁yari	-10.634
▁ahịa	-10.635
▁never	-10.635
▁forma	-10.635
▁gevolg	-10.6352
▁Christus	-10.6355
▁kawaida	-10.6358
pita	-10.636
▁Para	-10.6361
▁Council	-10.6361
▁woorde	-10.6361
▁elimu	-10.6363
▁Xafiiska	-10.6366
▁yaqaan	-10.6374
▁celui	-10.6378
hle	-10.638
▁sisi	-10.638
▁famille	-10.6381
▁ZA	-10.6381
▁Prof	-10.6383
▁ታ	-10.6384
ኮ	-10.6387
▁selon	-10.6393
▁ndalama	-10.6397
▁web	-10.6401
▁Great	-10.6403
▁uru	-10.6405
▁tsohon	-10.6406
fin	-10.6407
▁ntle	-10.6408
ፅ	-10.6408
▁qaarkood	-10.6417
▁ስ	-10.6418
▁zve	-10.6418
"),	-10.6419
▁dhawaan	-10.6426
pro	-10.6432
▁États	-10.644
▁possible	-10.6441
▁hab	-10.6442
▁ntse	-10.6443
▁azi	-10.6445
▁uya	-10.6448
kazi	-10.645
ney	-10.6453
▁lug	-10.6455
tjie	-10.6459
red	-10.6462
ኡ	-10.6463
▁fe	-10.6463
ኣ	-10.6463
▁otú	-10.6465
▁sakamakon	-10.6468
▁hai	-10.6473
ato	-10.6474
▁bayar	-10.6476
▁Sep	-10.6476
▁bang	-10.6477
°	-10.6482
dai	-10.6483
▁popular	-10.6489
▁ligne	-10.6491
▁bonus	-10.6498
▁maso	-10.6503
▁arkay	-10.6507
▁Royal	-10.6508
▁central	-10.6509
▁ድረስ	-10.651
▁labari	-10.6511
▁tsela	-10.6512
abo	-10.6514
▁njengoba	-10.6521
▁jireen	-10.6523
▁markaa	-10.6524
▁yakhe	-10.6527
▁damar	-10.6528
ngwa	-10.6532
▁mekaar	-10.6534
▁rw	-10.6535
▁usoo	-10.6548
▁nouvelle	-10.655
▁great	-10.656
▁information	-10.6561
▁jẹ́	-10.6561
iki	-10.6562
lala	-10.6572
▁near	-10.6573
▁gebeur	-10.6573
▁እንዴት	-10.6582
▁mp	-10.6583
▁كوكب	-10.6591
▁kowa	-10.6596
▁celle	-10.6601
ጣ	-10.6602
▁yabo	-10.6605
▁pili	-10.661
▁mtoto	-10.6612
mbi	-10.6613
Da	-10.6614
▁From	-10.6619
ska	-10.6621
▁Ze	-10.6621
▁Ao	-10.6621
▁Che	-10.6624
br	-10.6626
▁wá	-10.6628
▁dhab	-10.663
▁↑	-10.6631
▁Musa	-10.6633
▁በተ	-10.6634
▁kuva	-10.6635
kwi	-10.6638
▁xoog	-10.6645
▁OO	-10.6647
▁Somaliya	-10.6648
▁gouvernement	-10.6648
▁died	-10.6649
▁given	-10.665
▁basa	-10.6651
yadii	-10.6653
bare	-10.6656
▁maendeleo	-10.666
▁jirtay	-10.666
iso	-10.6661
▁aniga	-10.6667
▁story	-10.6667
▁Amerika	-10.6668
▁verstaan	-10.667
lay	-10.6674
▁qabto	-10.6675
▁Het	-10.6676
ለት	-10.6681
▁qaran	-10.6685
▁dagaalka	-10.6689
ዘ	-10.669
▁tonga	-10.669
nada	-10.6691
▁kubva	-10.6693
▁ቃል	-10.6698
▁say	-10.6699
▁change	-10.6699
▁ጥያቄ	-10.6707
ement	-10.6711
yahay	-10.6712
▁iPhone	-10.6713
▁aya	-10.6715
Ga	-10.6717
▁Christian	-10.6718
▁currently	-10.672
▁kipindi	-10.6722
tho	-10.6723
▁haddana	-10.6726
ayn	-10.6728
▁These	-10.6732
aanta	-10.6736
▁having	-10.6737
▁ለመ	-10.6739
▁old	-10.6742
▁hare	-10.6742
▁gha	-10.6744
▁እኔ	-10.6747
▁Ex	-10.6747
▁Jabuuti	-10.675
▁toerana	-10.6754
▁short	-10.6758
▁Halkan	-10.6761
▁huwa	-10.6765
.....	-10.6767
▁announced	-10.6769
▁apenas	-10.6772
ood	-10.6773
▁wi	-10.6776
ዕ	-10.6778
▁mwezi	-10.678
▁ችግር	-10.6789
▁Hall	-10.679
tanga	-10.6792
▁liefde	-10.6797
▁tše	-10.6801
▁manao	-10.6802
▁Markii	-10.6802
▁isikhathi	-10.6803
▁sami	-10.6805
mos	-10.681
ሜ	-10.6811
ቁ	-10.6812
▁Hukumar	-10.6815
▁tard	-10.6816
▁ngayo	-10.6818
▁Aka	-10.6822
lia	-10.6822
▁empa	-10.6824
play	-10.6826
ዎቹ	-10.6831
▁ilikuwa	-10.6831
dor	-10.6831
cin	-10.6832
▁በአ	-10.6833
▁ontvang	-10.6837
ፉ	-10.6838
▁ipo	-10.6838
▁Institute	-10.6838
▁ክልል	-10.684
ቆ	-10.6842
▁kwuru	-10.6846
▁tiro	-10.6847
ጡ	-10.6854
mg	-10.6855
pata	-10.6857
url	-10.6862
▁nemi	-10.6864
▁district	-10.6866
▁internet	-10.6867
ዮ	-10.6868
▁caafimaad	-10.6872
▁control	-10.6874
▁kokarin	-10.6874
tany	-10.6877
▁dhaafay	-10.688
▁jeer	-10.6881
▁Bal	-10.6882
▁Sheikh	-10.6886
▁Afspraak	-10.6887
No	-10.6887
▁Sal	-10.6887
▁shule	-10.6888
▁sabon	-10.689
▁Language	-10.6891
bola	-10.6891
▁hard	-10.6898
▁sluit	-10.6899
tz	-10.6899
iti	-10.6912
▁jo	-10.6915
▁moved	-10.6915
▁ሓ	-10.6916
una	-10.6916
▁motor	-10.6917
▁Per	-10.692
uhu	-10.692
html	-10.6923
asa	-10.6926
▁mois	-10.6931
▁darteed	-10.6934
▁ዓመታት	-10.6934
▁kọ	-10.6934
▁agter	-10.6937
▁አስ	-10.6938
▁aye	-10.6939
▁kusema	-10.6939
tọ	-10.6944
État	-10.6948
▁Or	-10.6949
mele	-10.6951
▁tant	-10.6951
▁taasoo	-10.6952
▁ኢ	-10.6955
lwe	-10.696
ard	-10.6963
▁xukuumadda	-10.6967
▁Degmada	-10.6968
▁court	-10.6973
▁Cusub	-10.6975
▁sido	-10.6977
▁Game	-10.6984
▁forme	-10.6986
tara	-10.6987
▁موجود	-10.6991
phe	-10.6991
ayay	-10.6994
▁Gu	-10.6994
▁keenay	-10.6994
▁Izi	-10.6999
▁IYO	-10.7001
facebook	-10.7003
tte	-10.7012
▁compte	-10.7013
▁jooga	-10.7015
▁três	-10.7016
▁Bayan	-10.7017
▁Hiiraan	-10.7029
▁office	-10.7032
out	-10.7032
▁gwamnan	-10.7032
▁wayn	-10.7037
▁hatrany	-10.7037
hy	-10.7039
................	-10.7043
▁vijana	-10.7044
▁COVID	-10.7046
▁Windows	-10.7049
▁cod	-10.7051
news	-10.7061
lisa	-10.7063
kevitra	-10.7064
WA	-10.7071
▁Laga	-10.7073
qo	-10.7076
▁maior	-10.7077
▁months	-10.7078
ሓ	-10.7081
ላቸው	-10.7083
lela	-10.7085
▁date	-10.709
▁comment	-10.709
▁Germany	-10.7093
▁sem	-10.7095
▁dernier	-10.7096
▁too	-10.7096
▁mutu	-10.7098
▁sanadkii	-10.7105
▁qaba	-10.7111
▁Hier	-10.7113
▁Siilaanyo	-10.7117
▁mil	-10.7124
▁Instagram	-10.7127
▁nome	-10.7128
▁bietjie	-10.7136
ጉ	-10.7137
▁bamu	-10.7139
▁einde	-10.7141
ag	-10.7144
▁noqotay	-10.7144
▁Vrouens	-10.7145
▁kufanele	-10.7146
▁Ju	-10.7149
▁daba	-10.716
umu	-10.7166
▁quelques	-10.7168
▁model	-10.7175
▁election	-10.7177
▁naam	-10.7185
▁እንደሆነ	-10.7189
ont	-10.7192
▁qaab	-10.7197
▁namna	-10.7201
▁hart	-10.7201
▁dhaqaalaha	-10.7202
ons	-10.7203
Ya	-10.7204
▁،	-10.7205
▁yena	-10.7211
Fa	-10.7213
▁ሳይሆን	-10.7213
▁player	-10.722
berg	-10.7223
hl	-10.7224
▁monga	-10.7224
▁ichi	-10.7225
▁open	-10.7225
▁zimene	-10.7225
ik	-10.7228
isme	-10.7235
▁III	-10.7239
▁diray	-10.7242
▁NAN	-10.7242
xo	-10.7245
▁niks	-10.7248
▁According	-10.725
▁title	-10.7251
▁gaadhay	-10.7256
yay	-10.7259
▁vorm	-10.7261
▁bincike	-10.7264
▁air	-10.7264
▁Cabdiraxmaan	-10.7265
▁various	-10.7267
▁vao	-10.7268
▁gaskiya	-10.727
ሬ	-10.7273
Unis	-10.7274
ubu	-10.7275
▁zambiri	-10.7285
▁Dawladda	-10.7288
▁tagay	-10.7289
▁Zimbabwe	-10.729
▁Muhammadu	-10.729
▁apa	-10.729
▁joalo	-10.729
We	-10.7292
▁share	-10.7295
Se	-10.7297
▁illaa	-10.7298
▁gaban	-10.7299
▁ዘመን	-10.7301
▁abo	-10.7305
▁ima	-10.7305
▁fitar	-10.7305
ንም	-10.7307
`	-10.7309
▁ዋና	-10.7309
▁LED	-10.731
▁mwingine	-10.7315
ú	-10.7317
▁mahad	-10.7318
▁malo	-10.732
siya	-10.7321
ishi	-10.7321
eysa	-10.7322
▁mengi	-10.7326
▁Abubakar	-10.7327
▁pu	-10.7327
eer	-10.7329
hui	-10.7331
xi	-10.7336
ene	-10.7336
▁art	-10.734
▁bestaan	-10.7343
▁የሚል	-10.7344
▁cause	-10.7346
▁wonke	-10.7346
▁does	-10.7348
ታቸው	-10.735
▁መንግስት	-10.7352
shu	-10.7354
▁Premier	-10.7355
▁kort	-10.7357
▁keliya	-10.736
▁Land	-10.7362
oni	-10.7362
ité	-10.7368
▁super	-10.7368
▁sawa	-10.7369
▁noqdo	-10.7369
▁lei	-10.737
▁tattoo	-10.7372
ff	-10.7374
▁bekend	-10.7374
▁taifa	-10.7383
▁warbaahinta	-10.7383
▁bese	-10.7383
ayey	-10.7384
ሶ	-10.7386
▁Bulshada	-10.7388
▁ዛሬ	-10.739
▁tatu	-10.7391
▁هوه	-10.7393
▁voalohany	-10.7393
ish	-10.7393
ais	-10.7397
▁etc	-10.74
▁sani	-10.7403
▁ts	-10.7405
▁Fu	-10.7411
▁NI	-10.7413
▁país	-10.7416
▁mulki	-10.7416
▁Malagasy	-10.7417
▁Hoose	-10.7419
▁awa	-10.742
▁Jèhófà	-10.742
▁lacagta	-10.7423
▁human	-10.7425
▁verkoop	-10.7425
▁staat	-10.7429
▁Barcelona	-10.743
ire	-10.7433
▁lig	-10.7435
▁maray	-10.7436
▁	-10.7436
▁بيه	-10.7436
▁Ukraine	-10.7441
▁ọkọ	-10.7444
▁neza	-10.7448
▁ayyukan	-10.7449
▁في	-10.7456
▁Sare	-10.7457
▁door	-10.7458
aire	-10.7469
▁Enkellopendes	-10.7471
▁students	-10.7475
▁Persoonlikes	-10.7477
▁jina	-10.7478
anza	-10.748
▁Play	-10.7482
▁Off	-10.7484
▁Kismaayo	-10.7498
▁nne	-10.7499
▁bixin	-10.75
for	-10.7503
▁research	-10.7504
▁karibu	-10.7504
ayso	-10.7504
▁shaqaalaha	-10.7505
ful	-10.7506
▁Hassan	-10.7506
▁nde	-10.7507
▁zaka	-10.7508
▁baan	-10.751
ل	-10.7516
▁Nga	-10.7523
▁ሁለት	-10.7524
ኻ	-10.7524
▁toos	-10.7527
▁Shin	-10.7527
▁ayna	-10.7532
▁Ẹ	-10.7534
▁force	-10.7534
▁ከተ	-10.7538
▁qoray	-10.7539
▁dhismaha	-10.754
yin	-10.7543
▁période	-10.7548
▁body	-10.755
▁wato	-10.7554
):	-10.7555
▁Duk	-10.7558
▁Hom	-10.7561
gun	-10.7563
▁casino	-10.7564
▁Wani	-10.7566
е	-10.7567
▁Russian	-10.757
▁zargin	-10.7574
▁Loo	-10.7584
▁betaal	-10.7585
▁iwo	-10.7592
▁Live	-10.7592
▁avo	-10.7592
€	-10.7593
year	-10.7594
▁>>	-10.7597
▁nti	-10.7597
▁vola	-10.7597
ten	-10.7598
▁taken	-10.7603
▁vas	-10.7603
TV	-10.7605
▁Jam	-10.7605
▁eniyan	-10.7607
pos	-10.7609
▁wanawake	-10.7611
esi	-10.7611
▁አገር	-10.7617
▁wit	-10.7621
▁kaloo	-10.7622
ibi	-10.7625
▁polisi	-10.763
▁result	-10.7631
ati	-10.7633
▁education	-10.7633
▁Ces	-10.7634
▁rudim	-10.7635
▁Global	-10.764
way	-10.7644
▁Sir	-10.7645
▁love	-10.7645
▁Star	-10.7646
▁website	-10.7647
▁awo	-10.7648
▁yonke	-10.7649
▁wadda	-10.765
▁Tour	-10.7652
▁Jaamac	-10.7652
tal	-10.7655
ها	-10.7656
▁chat	-10.7658
ንና	-10.766
▁Net	-10.7664
▁lokela	-10.7665
▁Asi	-10.767
▁kugu	-10.7673
▁onwe	-10.7674
▁church	-10.7675
▁Ì	-10.7676
▁together	-10.7676
▁dhici	-10.7677
▁uli	-10.7679
▁Nuur	-10.7686
▁bem	-10.7687
▁hoof	-10.7691
ፕ	-10.7692
▁established	-10.7693
▁Times	-10.7697
▁Turkey	-10.7698
▁nipasẹ	-10.77
▁regte	-10.7702
▁Henry	-10.7703
▁kaa	-10.771
▁yaki	-10.7713
▁amniga	-10.7717
▁countries	-10.7723
▁anders	-10.7724
▁Court	-10.7724
▁Mary	-10.7726
tena	-10.7726
▁ọnụ	-10.7728
▁Sign	-10.7729
▁DAAWO	-10.7731
ados	-10.7735
▁taa	-10.7743
▁software	-10.7743
▁north	-10.7745
let	-10.7747
weza	-10.7747
ings	-10.7748
fana	-10.7751
adi	-10.7754
mela	-10.776
▁muku	-10.776
use	-10.776
▁Ro	-10.7772
▁lasoo	-10.7778
▁ọna	-10.7785
▁process	-10.7789
tta	-10.7792
▁suala	-10.7793
▁kuliko	-10.7794
wood	-10.7798
▁huyu	-10.7798
▁የማ	-10.7799
▁unga	-10.7799
▁persoon	-10.7802
▁kò	-10.7802
▁xilli	-10.7803
▁yanar	-10.7805
▁however	-10.7806
▁kodi	-10.7808
ima	-10.781
▁saddex	-10.7812
").	-10.7813
khala	-10.7813
▁verskeie	-10.7816
▁mali	-10.7818
▁sada	-10.7819
eri	-10.7821
▁Army	-10.7822
▁programme	-10.7823
▁dar	-10.7829
▁sena	-10.783
riya	-10.7832
▁xil	-10.7832
yaa	-10.7834
▁Daniel	-10.7838
▁rwanda	-10.7843
▁cm	-10.7843
▁created	-10.7847
▁intaas	-10.7848
ron	-10.7856
▁pakati	-10.7859
▁diẹ	-10.7867
▁vier	-10.7868
TA	-10.7868
▁oop	-10.787
▁ọrọ	-10.7872
▁markaas	-10.7874
▁ká	-10.7881
▁niveau	-10.7883
▁ụmụ	-10.7883
▁abubuwan	-10.7889
▁Pierre	-10.7891
▁south	-10.7892
baa	-10.7897
▁dowlada	-10.7904
▁gano	-10.7906
▁imali	-10.7911
▁xal	-10.7911
▁sanar	-10.7918
▁chete	-10.7919
▁aandele	-10.792
▁hannun	-10.7924
nja	-10.7929
▁cada	-10.793
sur	-10.7933
▁anaye	-10.7935
acha	-10.7936
▁picha	-10.794
▁further	-10.7943
▁Sur	-10.7944
▁zonse	-10.7946
ሸ	-10.7949
tsika	-10.7949
▁tarayya	-10.7949
▁Green	-10.795
▁ló	-10.795
▁KULMIYE	-10.795
▁beskikbaar	-10.7952
▁hita	-10.7963
▁julọ	-10.7969
▁Film	-10.7969
▁Reer	-10.7969
▁course	-10.797
▁maklik	-10.7973
▁Kuna	-10.7977
▁yẹ	-10.7978
▁culture	-10.7979
▁afin	-10.7979
▁Ị	-10.7981
▁dawo	-10.7987
▁Daily	-10.7989
▁Liverpool	-10.7994
▁abe	-10.7995
iṣẹ	-10.7996
▁Laakiin	-10.8007
▁jijini	-10.8007
sen	-10.8007
▁sent	-10.8008
▁working	-10.8009
Ti	-10.801
Mi	-10.801
mada	-10.8012
▁bishii	-10.8014
▁wys	-10.8016
run	-10.8016
Li	-10.8017
▁Gay	-10.8018
▁written	-10.8019
▁twa	-10.8025
▁Afirka	-10.8029
▁away	-10.803
bel	-10.8037
▁tatizo	-10.8038
nna	-10.8042
https	-10.8045
▁Nin	-10.8046
▁bali	-10.8046
ኪ	-10.8047
sana	-10.8047
▁dauki	-10.8049
▁trouve	-10.805
▁የማይ	-10.8052
▁app	-10.8055
▁Umoja	-10.8057
▁Republic	-10.8059
▁term	-10.8061
▁nolosha	-10.8061
▁Act	-10.8064
ية	-10.8066
▁Xa	-10.8067
▁areas	-10.8068
▁segundo	-10.8071
bona	-10.8075
▁duba	-10.8077
▁njenge	-10.8077
▁msingi	-10.8084
▁moto	-10.8084
▁nzuri	-10.8085
pho	-10.8091
▁gal	-10.8094
▁route	-10.8094
▁zilizo	-10.8094
▁dikwels	-10.8096
▁étaient	-10.8096
▁mmiri	-10.81
▁bank	-10.8101
ino	-10.8103
eni	-10.8106
▁genoeg	-10.8108
▁todos	-10.8109
▁bilaabay	-10.811
▁caafimaadka	-10.8111
▁species	-10.8114
▁asilimia	-10.8114
▁red	-10.8117
▁making	-10.8119
▁pamusoro	-10.8119
▁ensuite	-10.8124
chu	-10.8125
▁sameeyey	-10.813
▁wasiirka	-10.8135
▁oju	-10.8135
▁française	-10.8136
ban	-10.8139
▁nombreux	-10.8142
▁Kulmiye	-10.8142
▁mkono	-10.8147
ren	-10.815
▁Boko	-10.8153
shwa	-10.8153
kala	-10.8154
▁afya	-10.8156
▁aga	-10.8157
▁project	-10.8159
▁films	-10.816
▁level	-10.8163
nci	-10.8163
▁xaq	-10.8164
▁Hii	-10.8164
▁Hal	-10.8166
▁fudud	-10.8167
▁Kom	-10.817
tic	-10.8171
▁Pia	-10.8175
▁loku	-10.8176
ኽ	-10.8179
▁im	-10.8183
▁ስም	-10.8185
▁tool	-10.8185
▁dze	-10.8186
▁bou	-10.8186
▁Power	-10.8186
▁ገ	-10.8187
▁ƙasa	-10.819
▁marina	-10.819
▁Sweden	-10.8199
▁ልጅ	-10.8203
iza	-10.8205
▁njira	-10.8205
swa	-10.8211
▁Kooxda	-10.8212
▁mfano	-10.8212
▁leng	-10.8213
dwa	-10.8213
▁private	-10.8215
▁ninka	-10.8216
▁zva	-10.8217
iva	-10.8217
lang	-10.8217
▁Maka	-10.8218
▁Tiener	-10.8221
▁ndụ	-10.8222
▁Gi	-10.8223
▁buite	-10.8223
â	-10.8225
▁Banaadir	-10.8225
▁projet	-10.8226
▁Domin	-10.8234
lẹ	-10.8237
▁magaca	-10.8237
▁wakhe	-10.8238
kira	-10.824
▁Shariif	-10.8242
▁Inter	-10.8245
▁Portugal	-10.8249
▁obu	-10.8254
▁Faarax	-10.8255
▁feta	-10.8255
▁inoo	-10.826
▁الاسم	-10.8262
▁ታሪክ	-10.8263
▁Bybel	-10.8265
▁Haram	-10.8279
▁deuxième	-10.8281
maan	-10.8283
▁California	-10.8285
▁tayi	-10.8286
uza	-10.8286
▁ነበር፡፡	-10.8287
▁vahoaka	-10.8288
▁magac	-10.8289
▁Por	-10.8294
▁rana	-10.8296
▁Internet	-10.8296
eng	-10.8307
▁oun	-10.8309
▁young	-10.8311
▁lwa	-10.8314
▁wou	-10.8314
▁ane	-10.8315
▁Trading	-10.8315
▁Arewa	-10.8319
▁wife	-10.8322
wana	-10.8322
▁veel	-10.8322
tera	-10.8328
▁tiri	-10.8334
▁dra	-10.8338
▁think	-10.8339
▁rede	-10.8344
▁val	-10.8345
nto	-10.8345
▁fils	-10.8348
▁Gudoomiyaha	-10.8348
▁kuzi	-10.8351
▁wiki	-10.8351
vin	-10.8351
▁loop	-10.8356
▁us	-10.8357
ol	-10.8358
▁unaweza	-10.8364
▁Guddiga	-10.8364
▁Mwa	-10.8365
▁Pre	-10.8368
▁food	-10.8369
US	-10.8371
nan	-10.8373
ዓ	-10.8373
▁talo	-10.8374
▁qiimaha	-10.8376
▁kuku	-10.8377
ሮች	-10.8384
▁present	-10.8384
▁duniani	-10.8387
▁xubnaha	-10.839
▁nkhani	-10.8392
▁cheat	-10.8394
▁ያህል	-10.8394
▁tweede	-10.8395
▁ẹgbẹ	-10.84
▁Buy	-10.8402
▁hoor	-10.8402
▁Swart	-10.8406
gin	-10.8408
▁banyere	-10.8409
▁ትምህርት	-10.841
▁waaweyn	-10.8412
▁Gen	-10.8417
▁ndege	-10.8417
▁nani	-10.842
Ke	-10.842
sel	-10.8427
waa	-10.8428
ኤ	-10.8432
▁xigeenka	-10.8434
Go	-10.8435
▁بيتبع	-10.8436
▁kely	-10.8436
▁Ten	-10.8437
▁cyangwa	-10.844
▁shirya	-10.8441
▁maaha	-10.8441
▁siyaasadda	-10.8443
▁jong	-10.8444
aasha	-10.8446
▁então	-10.8448
▁Onye	-10.8449
▁Nke	-10.8449
▁العلمى	-10.8451
▁Foi	-10.8451
▁Russia	-10.8452
▁siiyo	-10.8454
mana	-10.8456
▁sady	-10.8461
NA	-10.8462
د	-10.8465
▁vs	-10.8466
php	-10.8467
▁ọjọ	-10.8467
▁plant	-10.8468
▁key	-10.8469
▁wathi	-10.847
▁Tom	-10.8473
sia	-10.8476
▁heshiis	-10.8478
▁iko	-10.8479
▁front	-10.848
▁matla	-10.848
bay	-10.848
▁lamarin	-10.8484
▁waqti	-10.8492
année	-10.8494
kiri	-10.8495
▁Federal	-10.8496
ሁ	-10.8498
▁ọdun	-10.8499
tey	-10.85
ቹ	-10.8504
▁ሰ	-10.8507
▁fumana	-10.8507
▁Sunday	-10.8517
gga	-10.8518
▁لاعب	-10.852
▁han	-10.8526
▁Light	-10.853
▁Cho	-10.853
Ki	-10.853
panga	-10.8532
▁across	-10.8535
▁ahna	-10.8539
▁miaraka	-10.8541
sema	-10.8544
▁geword	-10.8547
▁Wanneer	-10.855
▁worked	-10.855
▁بت	-10.8551
▁person	-10.8553
king	-10.8553
▁District	-10.8553
▁dukkan	-10.8555
▁jare	-10.8556
▁Smith	-10.8556
▁manokana	-10.8557
▁Porno	-10.8568
▁doontaa	-10.857
▁Jami	-10.8571
▁gegee	-10.8573
▁mother	-10.8575
▁kampuni	-10.8576
nia	-10.8576
▁zinazo	-10.8576
▁ẹni	-10.8579
▁chez	-10.858
▁Big	-10.858
▁Deg	-10.8581
ori	-10.8581
ven	-10.8583
nina	-10.8584
▁kuzo	-10.8586
▁dhaqanka	-10.8586
iisa	-10.8587
▁Donald	-10.8587
▁walikuwa	-10.8596
▁waje	-10.8596
▁chef	-10.8596
To	-10.8597
▁tashi	-10.8598
▁laaste	-10.8599
▁ሌላ	-10.86
▁aloha	-10.8601
▁tiener	-10.8603
vy	-10.8603
▁Gar	-10.8604
▁Port	-10.8605
у	-10.8606
▁der	-10.8608
▁kidogo	-10.8612
▁volg	-10.8614
bra	-10.8615
▁የሆነ	-10.8615
▁ken	-10.8615
aient	-10.8616
▁Md	-10.8616
▁Lee	-10.8619
lada	-10.8621
▁تحت	-10.8622
▁autre	-10.8622
▁Chelsea	-10.8623
▁Chris	-10.8627
▁los	-10.8628
cer	-10.863
▁nanao	-10.8631
▁xusay	-10.8634
▁anefa	-10.864
▁minder	-10.8643
▁fada	-10.8645
lee	-10.8646
▁ደ	-10.8648
ነው	-10.8654
▁nadat	-10.8655
▁Brown	-10.8658
yn	-10.8663
▁xiriir	-10.8663
▁kansa	-10.8664
▁black	-10.8665
▁ما	-10.8666
#	-10.8667
kọ	-10.8668
▁ukweli	-10.8668
▁Bw	-10.8669
▁lost	-10.867
▁iza	-10.8672
▁Mme	-10.8677
tana	-10.8678
▁nidaamka	-10.8678
▁stop	-10.8682
▁wasaaradda	-10.8683
▁diinta	-10.8684
▁stem	-10.8688
▁MP	-10.8689
né	-10.8693
▁በኩል	-10.8696
werk	-10.8698
▁fire	-10.87
▁gesien	-10.8701
▁tafi	-10.8702
kun	-10.8711
fer	-10.8713
bin	-10.8719
▁Dib	-10.8721
▁Afrikaanse	-10.8723
▁Ayaa	-10.8725
▁sabuwar	-10.8726
▁dadku	-10.8728
▁Wakati	-10.8731
▁qual	-10.8733
store	-10.8733
▁kó	-10.8736
isation	-10.8739
▁ibe	-10.874
daa	-10.8742
yaan	-10.8742
▁mafuta	-10.8746
▁geval	-10.8747
▁ህዝብ	-10.875
▁Can	-10.875
▁permet	-10.8752
▁dowlad	-10.8754
▁Mkoa	-10.8756
▁milioni	-10.8757
▁produced	-10.8759
▁stories	-10.8768
har	-10.8772
▁Games	-10.8772
▁Law	-10.8778
▁kowane	-10.8781
▁mkutano	-10.8781
▁woord	-10.8782
ፊ	-10.8784
▁girma	-10.8789
▁raba	-10.8789
ዎችን	-10.8789
▁mudan	-10.8792
▁dhaca	-10.8792
▁kuto	-10.8793
▁ሌሎች	-10.8793
▁Tan	-10.8794
▁duas	-10.8794
▁imwe	-10.8795
ن	-10.8798
ባት	-10.88
ش	-10.8802
▁ambalo	-10.8804
ble	-10.8804
▁continued	-10.8809
▁Centre	-10.881
bha	-10.8813
via	-10.8814
▁Iye	-10.8815
field	-10.8817
▁bí	-10.8817
▁imani	-10.8822
▁shari	-10.8823
É	-10.8829
▁seen	-10.8834
▁reste	-10.8835
▁shida	-10.8836
▁yini	-10.8841
▁Angola	-10.8841
▁bonke	-10.8848
▁married	-10.8849
▁Masar	-10.8849
▁situation	-10.885
▁IS	-10.8851
▁mjini	-10.8853
SA	-10.8854
▁afka	-10.8856
▁fotos	-10.8857
▁uka	-10.886
mali	-10.886
▁faru	-10.8864
gaan	-10.8867
▁Sports	-10.8867
▁Een	-10.8868
ula	-10.8873
▁brand	-10.8874
▁find	-10.8874
▁Line	-10.8875
▁Show	-10.8876
iye	-10.8878
▁Dhageyso	-10.8879
▁Mara	-10.8881
▁grandes	-10.8882
ለው	-10.8883
▁verder	-10.8886
▁AMISOM	-10.8886
▁Indian	-10.8888
▁modern	-10.8899
▁só	-10.89
▁baarlamaanka	-10.8905
▁Society	-10.8906
▁familia	-10.8906
ante	-10.8914
▁ሕዝብ	-10.8916
▁doortay	-10.892
ی	-10.8923
▁yoyote	-10.8925
ian	-10.8928
tee	-10.8929
▁Magufuli	-10.8929
▁biya	-10.8933
▁Ciise	-10.8937
▁አንዱ	-10.8938
▁kuita	-10.8938
itwa	-10.8939
▁horay	-10.8945
Ho	-10.8946
▁Ururka	-10.8947
équipe	-10.8951
▁Klein	-10.8952
▁okwu	-10.8953
▁security	-10.8957
▁maneno	-10.8961
▁zan	-10.8961
▁bakin	-10.8962
kula	-10.8962
▁kahle	-10.8963
▁ngesikhathi	-10.8966
▁farany	-10.8966
▁hawl	-10.8966
▁Festival	-10.8969
▁rai	-10.8969
▁zabo	-10.8969
▁Ankara	-10.8971
▁Beesha	-10.8972
▁ማድረግ	-10.8972
▁Qaramada	-10.8972
tre	-10.8973
An	-10.8977
▁magacaabay	-10.8983
▁Bunge	-10.8983
ā	-10.8986
▁Dk	-10.8989
▁filme	-10.8992
▁hatramin	-10.8993
▁bao	-10.8995
▁waxbarashada	-10.8997
origine	-10.8998
elo	-10.9
▁Network	-10.9004
▁roi	-10.9006
▁iwu	-10.9008
▁Jubbaland	-10.9011
▁bone	-10.9013
▁mihitsy	-10.9014
▁event	-10.9017
iste	-10.9019
كوكبه	-10.9022
▁ulio	-10.9024
tuma	-10.9025
▁returned	-10.9026
▁lang	-10.9029
▁jour	-10.903
▁près	-10.9031
▁né	-10.9032
ford	-10.9032
▁groei	-10.9035
▁volgens	-10.9039
ج	-10.9045
kom	-10.9049
▁Arsenal	-10.9049
▁Pakistan	-10.905
kuti	-10.9052
▁gaarka	-10.9053
▁works	-10.9054
▁director	-10.9055
▁Some	-10.9056
▁Maxaa	-10.9056
▁kuhakikisha	-10.9058
▁nínú	-10.9059
▁Hill	-10.906
▁ቁጥር	-10.906
ance	-10.9061
▁lead	-10.9061
▁ከሆነ	-10.9065
So	-10.9068
ï	-10.9068
▁anasema	-10.907
▁année	-10.907
▁ባለ	-10.9078
▁Dad	-10.9078
imba	-10.908
▁babe	-10.9083
▁rights	-10.9088
▁rika	-10.9089
▁vanaf	-10.909
▁pessoas	-10.9091
▁pré	-10.9093
▁pesa	-10.9093
▁taimaka	-10.9095
▁code	-10.9097
▁fotsiny	-10.9097
▁Ils	-10.9098
▁mbụ	-10.9101
??	-10.9101
▁eu	-10.9101
▁Mans	-10.9106
▁joined	-10.9107
▁dunia	-10.9107
▁kada	-10.9108
▁inona	-10.9109
▁list	-10.911
▁continue	-10.9117
▁dhul	-10.9124
▁Shabaab	-10.9132
yaal	-10.9134
▁better	-10.9138
▁personnes	-10.9138
rang	-10.9141
zana	-10.9143
▁ክፍል	-10.9145
▁Isku	-10.9149
▁oke	-10.9151
▁stelsel	-10.9157
▁living	-10.9158
▁dawa	-10.916
km	-10.9164
ization	-10.9165
▁language	-10.9165
long	-10.9165
Pa	-10.9168
▁nasara	-10.9169
▁intaa	-10.9171
Be	-10.9173
▁bindiga	-10.9174
En	-10.9177
▁buri	-10.9183
▁Award	-10.9192
▁alipo	-10.9192
bala	-10.9192
▁ireny	-10.9196
▁ayant	-10.9197
▁ahaatee	-10.9199
dé	-10.92
▁dating	-10.9202
▁comments	-10.9204
▁Simba	-10.9206
▁Foto	-10.9207
▁wena	-10.9208
▁Frank	-10.9209
iyey	-10.921
▁Life	-10.921
▁performance	-10.9216
▁José	-10.9217
▁مارس	-10.9217
▁similar	-10.9224
ቀ	-10.9224
nao	-10.923
▁Ilaahay	-10.923
▁killed	-10.9231
▁That	-10.9234
▁dace	-10.9235
▁toujours	-10.9236
kara	-10.9237
▁ዘንድ	-10.9237
▁grootste	-10.9238
▁gabata	-10.924
Afrikaanse	-10.924
▁étant	-10.9241
▁BA	-10.9241
▁Division	-10.9244
▁Vo	-10.9244
▁duidelik	-10.9246
▁haatan	-10.9247
ayi	-10.9248
▁yaka	-10.9248
▁kanjani	-10.9249
pre	-10.925
google	-10.9252
▁considered	-10.9256
▁wanafunzi	-10.9257
▁peuvent	-10.9258
▁نوع	-10.9263
yeen	-10.9263
▁ስለዚህ	-10.9263
▁Web	-10.9264
funga	-10.9264
▁Ingiriiska	-10.9265
▁meisie	-10.9266
▁governo	-10.9267
▁Tri	-10.9268
ቤ	-10.9269
▁Mohammed	-10.9269
▁halkaasi	-10.9269
▁Mba	-10.927
▁Academy	-10.9276
▁mm	-10.9277
▁haja	-10.9287
▁described	-10.9288
▁Haddaba	-10.9291
▁Col	-10.9294
▁dole	-10.9294
wan	-10.9294
▁rag	-10.9295
▁Spain	-10.9295
▁Far	-10.9297
▁saak	-10.9298
MA	-10.9298
▁sein	-10.9301
▁rock	-10.9303
ሀ	-10.9309
▁waarin	-10.9315
ized	-10.9315
nne	-10.9318
▁skep	-10.9319
sk	-10.932
▁Government	-10.9323
▁minute	-10.9324
▁yìí	-10.9324
▁jeeda	-10.9327
▁Chineke	-10.9327
▁nawo	-10.9329
▁muke	-10.9331
▁Sul	-10.9333
yga	-10.9333
▁Warka	-10.9336
ique	-10.9338
▁ururka	-10.934
▁yaliyo	-10.9341
▁pasi	-10.9343
▁konke	-10.9343
▁saw	-10.9343
▁mazingira	-10.9347
▁Island	-10.9349
▁maty	-10.9352
▁diiday	-10.9354
afọ	-10.9356
ـ	-10.9364
▁munhu	-10.9365
▁kuye	-10.9369
khe	-10.937
ጻ	-10.937
lar	-10.937
▁mpanao	-10.9371
▁once	-10.9374
▁gar	-10.9375
▁mila	-10.9376
shabaab	-10.9378
ችን	-10.9381
▁special	-10.9386
Ca	-10.9389
▁ndo	-10.9392
▁Alhaji	-10.9393
▁doorashooyinka	-10.9394
▁Obama	-10.9402
▁Brazil	-10.9402
▁masana	-10.9404
▁mfumo	-10.9405
▁maalinta	-10.9406
▁Service	-10.9406
▁ጥሩ	-10.9408
▁بي	-10.941
agba	-10.9411
▁antsika	-10.9414
▁Mgbe	-10.9414
▁Up	-10.9414
bal	-10.9419
▁doit	-10.9421
tr	-10.9424
▁health	-10.9424
laha	-10.9428
mes	-10.943
gira	-10.9432
▁zone	-10.9433
▁Islaamka	-10.9434
ges	-10.9434
▁While	-10.9437
▁Ngakho	-10.9437
▁guriga	-10.9441
▁baaqay	-10.9441
▁kulmay	-10.9442
▁nationale	-10.9444
▁Videos	-10.9444
▁ad	-10.9447
▁direction	-10.9447
▁Italian	-10.9448
▁belangrik	-10.945
▁rayuwa	-10.9451
▁grupo	-10.9451
▁Gwamna	-10.9453
▁race	-10.9455
qi	-10.9462
▁terme	-10.9464
▁eona	-10.9467
▁اكتشف	-10.9471
▁Ati	-10.9472
▁Katibu	-10.9475
▁gusa	-10.9476
▁ilu	-10.9481
▁besoek	-10.9481
▁ọma	-10.9486
▁example	-10.9489
▁nguva	-10.9494
▁kastaba	-10.9495
▁geloof	-10.9495
anya	-10.9496
▁Sudan	-10.9497
▁kies	-10.9503
▁Kim	-10.9511
ر	-10.9515
▁division	-10.9515
▁effet	-10.9516
▁Jou	-10.9516
▁waad	-10.9517
▁Early	-10.9517
▁ብር	-10.952
▁Meisie	-10.952
ous	-10.952
▁league	-10.9523
▁question	-10.9526
▁nyumbani	-10.9526
▁civil	-10.9531
▁miliyan	-10.9532
▁mengine	-10.9539
▁professional	-10.9541
▁abinci	-10.9541
▁yeelay	-10.9542
▁daidai	-10.9542
▁taka	-10.9544
▁geneem	-10.9546
▁kos	-10.955
▁kari	-10.9551
▁sterk	-10.9552
▁وسط	-10.9553
▁እዩ።	-10.9554
zvi	-10.9556
▁apo	-10.9557
▁Gwamnan	-10.9558
▁እዚ	-10.9559
par	-10.9564
▁tontolo	-10.9567
▁size	-10.957
▁diens	-10.957
▁Angeles	-10.9572
▁ine	-10.9573
▁Grande	-10.9574
▁Phone	-10.9578
▁sport	-10.9578
▁himself	-10.958
▁study	-10.9581
▁webwerf	-10.9582
▁tace	-10.9583
?"	-10.9584
▁Western	-10.9586
▁ambiri	-10.9592
▁achi	-10.9593
▁ክርስቲያን	-10.9594
▁በኢትዮጵያ	-10.9595
▁እንዳ	-10.9595
▁hours	-10.9596
▁Ray	-10.9596
try	-10.9598
▁sita	-10.9598
▁bixi	-10.96
▁taariikhda	-10.9601
▁going	-10.9602
ahụ	-10.9607
▁estava	-10.9612
▁Gwamnatin	-10.9612
▁Chama	-10.9613
▁ዝተ	-10.9614
▁reported	-10.9615
▁waxan	-10.9615
water	-10.9621
▁ere	-10.9623
▁finale	-10.9623
▁Office	-10.9624
side	-10.9624
▁minutes	-10.9625
▁nwa	-10.9628
▁tloha	-10.9629
▁krag	-10.9631
▁middel	-10.9632
▁lewens	-10.9637
▁ዶ	-10.9639
▁Julie	-10.9644
▁sabab	-10.9645
▁Kuu	-10.9645
▁kuwii	-10.9648
▁onse	-10.9652
ix	-10.9654
ihu	-10.9655
▁action	-10.9656
ning	-10.9656
▁membres	-10.9659
▁kuno	-10.9663
khu	-10.9667
▁dhigo	-10.9667
kani	-10.9667
▁egwu	-10.9669
iin	-10.9669
▁trans	-10.967
▁Jesosy	-10.9673
▁Wizara	-10.9675
▁Ngi	-10.9678
ኦ	-10.9678
كويكب	-10.9679
▁Nou	-10.9684
▁vida	-10.9686
▁dhawr	-10.9688
▁pelos	-10.9691
nayo	-10.9693
▁gekom	-10.9694
▁akaba	-10.9697
▁Kar	-10.9699
▁meisies	-10.97
▁biyaha	-10.9702
▁nitori	-10.9703
▁garab	-10.9704
▁formation	-10.9706
iyya	-10.9707
live	-10.9708
▁jeu	-10.9709
histoire	-10.9709
▁maal	-10.9711
Les	-10.9712
▁eme	-10.9712
▁gabatar	-10.9713
ère	-10.9717
▁noqoto	-10.972
▁Lokhu	-10.9721
▁Waxaana	-10.9724
▁Burco	-10.9724
▁mora	-10.9725
▁société	-10.9727
▁aure	-10.9728
ል።	-10.9735
lie	-10.9735
▁tangu	-10.9741
▁(@	-10.9742
Waxaan	-10.9743
▁shafi	-10.9744
▁xitaa	-10.9744
uit	-10.9746
▁mission	-10.9747
▁Santa	-10.9747
▁Nie	-10.9747
▁Mata	-10.9748
eeyo	-10.975
▁mor	-10.9751
▁Awards	-10.9753
▁territoire	-10.9753
▁road	-10.9756
▁maintsy	-10.9757
▁hadana	-10.9759
ummar	-10.9761
▁addition	-10.9761
▁qabo	-10.9762
▁multi	-10.9765
▁fiye	-10.9767
arụ	-10.9767
▁tara	-10.9768
ሎች	-10.9771
tahay	-10.9771
yaasha	-10.9774
ões	-10.9774
▁mwenyewe	-10.9774
▁ብለው	-10.9776
▁Biography	-10.9776
▁Bwana	-10.978
▁common	-10.9781
▁give	-10.9781
▁geniet	-10.9783
▁prend	-10.9785
▁leader	-10.9787
▁gun	-10.9792
▁Dowlada	-10.9792
▁souvent	-10.9793
▁igba	-10.9795
▁horumar	-10.9796
▁Shir	-10.9797
tooda	-10.9797
▁سبتمبر	-10.9797
uwa	-10.9798
▁xalay	-10.98
▁page	-10.9801
▁département	-10.9804
▁hit	-10.9804
▁span	-10.9809
lig	-10.9813
▁እነዚህ	-10.9818
▁travail	-10.9818
▁woku	-10.9818
▁release	-10.9819
▁Er	-10.9819
▁izahay	-10.9821
▁dịka	-10.9821
▁druk	-10.9823
shin	-10.9825
▁ا	-10.9827
▁Euro	-10.9828
▁kundi	-10.9832
▁lagaga	-10.9832
cas	-10.9833
▁cinq	-10.9835
▁wakho	-10.9836
▁moment	-10.9838
omba	-10.984
▁Commission	-10.984
▁hoop	-10.9846
▁bayani	-10.9849
▁ngokuthi	-10.9853
▁mbaya	-10.9855
▁xiran	-10.9856
▁verloor	-10.9862
▁ese	-10.9865
▁ling	-10.9869
▁og	-10.9873
▁Ismaaciil	-10.9874
▁Futhi	-10.9874
▁Europa	-10.9874
▁እዩ	-10.9876
▁Town	-10.9876
old	-10.9881
▁What	-10.9882
▁Ban	-10.9888
▁ganacsiga	-10.9888
ige	-10.9889
▁dheeraad	-10.9892
▁close	-10.9895
▁Yu	-10.9895
▁training	-10.9896
ally	-10.9897
▁big	-10.9898
mwe	-10.99
▁groep	-10.9901
▁isagu	-10.9902
▁ናብ	-10.9907
▁television	-10.9907
▁አይደለም	-10.9908
igihugu	-10.9911
ngoe	-10.9912
dh	-10.9913
▁field	-10.9914
▁awon	-10.9914
▁playing	-10.9914
ó	-10.9914
▁Comment	-10.9915
▁wuce	-10.9916
▁report	-10.9919
▁Inc	-10.992
DA	-10.9921
ated	-10.9921
▁wallafa	-10.9922
▁hantle	-10.9923
▁Xarunta	-10.9925
▁shughuli	-10.9925
her	-10.9927
ون	-10.9928
▁assim	-10.9931
▁ያሉ	-10.9931
▁toute	-10.9939
▁return	-10.994
▁durant	-10.9945
▁raad	-10.9946
rar	-10.9948
kale	-10.9952
▁kop	-10.9953
▁Nord	-10.9953
▁dauke	-10.9957
▁tinha	-10.9957
nis	-10.996
▁kuanza	-10.996
ፌ	-10.9962
▁Babu	-10.9962
▁structure	-10.9963
▁wu	-10.9966
▁Naibu	-10.9966
bre	-10.9967
▁área	-10.9968
▁outras	-10.9968
ኢ	-10.9972
▁adduunka	-10.9976
▁attack	-10.9979
▁Booliska	-10.9979
▁kile	-10.9979
▁adiga	-10.9979
▁Am	-10.998
▁engine	-10.9983
▁waxyaabaha	-10.9984
▁teve	-10.9988
He	-10.9989
▁Covid	-10.9991
▁artikel	-10.9992
▁waarde	-10.9994
▁Hor	-10.9999
▁tattalin	-10.9999
▁ɗan	-11.0001
weni	-11.0002
▁ondersoek	-11.0003
▁agba	-11.0004
▁dilo	-11.0005
▁imbere	-11.0006
Co	-11.0009
▁ዓይነት	-11.001
ombe	-11.0012
ud	-11.0012
▁official	-11.0015
▁fẹ	-11.0015
▁joale	-11.0017
▁tirada	-11.0017
▁Dastuurka	-11.0018
▁matokeo	-11.0018
▁mchezo	-11.0021
▁ኃይል	-11.0022
▁père	-11.0024
ins	-11.0024
▁Cabdullaahi	-11.0025
▁kuongeza	-11.0026
▁መሆን	-11.0027
▁fita	-11.0028
▁Majalisar	-11.0028
ጦ	-11.0029
aayo	-11.0029
▁ከመ	-11.0034
▁በማለት	-11.0034
ም፡፡	-11.0037
NI	-11.0038
▁hadalka	-11.0048
▁Education	-11.0048
amu	-11.0049
▁weerar	-11.0053
ታዊ	-11.0055
▁though	-11.0057
▁ANC	-11.0058
▁round	-11.0058
▁waxana	-11.006
▁koox	-11.0061
▁batla	-11.0061
▁አን	-11.0061
▁jours	-11.0062
▁komai	-11.0063
▁kyauta	-11.0064
▁nabo	-11.0069
▁Gold	-11.007
▁ụgbọ	-11.0072
▁ወር	-11.0072
▁Madaxda	-11.0074
▁rol	-11.0077
▁zima	-11.0078
ቼ	-11.0081
▁ሃ	-11.0086
▁karta	-11.0088
rra	-11.0088
pan	-11.0089
▁ware	-11.0092
met	-11.0093
▁''	-11.0098
▁current	-11.01
▁kamfanin	-11.0101
▁sasany	-11.0103
▁እንዳይ	-11.0104
▁System	-11.0104
Fi	-11.0107
NY	-11.0109
▁HO	-11.0109
▁Dhinaca	-11.011
▁Abdullahi	-11.0111
▁vice	-11.0113
▁tarehe	-11.0115
nyi	-11.012
▁white	-11.012
▁ኦ	-11.0122
phu	-11.0122
▁emi	-11.0125
lam	-11.0126
▁Development	-11.0126
▁banda	-11.0128
▁lê	-11.013
▁rẹ̀	-11.0132
▁//	-11.0135
▁natural	-11.0136
anka	-11.0138
▁vehivavy	-11.0143
▁haku	-11.0144
▁ụfọdụ	-11.0145
▁የፖለቲካ	-11.0146
▁AH	-11.0147
oor	-11.0147
bara	-11.0149
maso	-11.015
▁bala	-11.0151
Ko	-11.0161
▁Nu	-11.0161
▁Hotel	-11.0163
▁ding	-11.0166
▁Deur	-11.017
▁Polisi	-11.0173
▁solo	-11.0181
port	-11.0181
▁dae	-11.0182
▁desde	-11.0183
▁Cape	-11.0184
tus	-11.0185
▁night	-11.0187
▁sexy	-11.0187
ጎ	-11.0191
▁Pretoria	-11.0191
▁dhintay	-11.0191
▁ruwaito	-11.0191
▁enquanto	-11.0192
▁álbum	-11.0194
▁Villa	-11.0194
▁vraag	-11.0196
▁Kor	-11.0199
▁low	-11.0201
▁future	-11.0201
▁baxday	-11.0202
iese	-11.0205
▁zumunta	-11.0205
▁zili	-11.0208
▁Mali	-11.0208
▁faritra	-11.0211
▁why	-11.0214
▁asook	-11.0215
▁bilood	-11.0217
▁Maart	-11.0217
▁minister	-11.0217
▁uur	-11.0218
▁EST	-11.0221
▁ukwenza	-11.0221
▁Shugaba	-11.0224
▁idiin	-11.0228
▁maande	-11.0228
Bo	-11.0231
Bi	-11.0232
▁hoja	-11.0232
▁mulkin	-11.0232
▁mtima	-11.0234
▁dawlada	-11.0234
▁ድማ	-11.0237
▁ag	-11.0239
▁dziko	-11.0239
▁Department	-11.025
▁appeared	-11.0251
▁Korea	-11.0252
▁Fun	-11.0255
▁toutes	-11.0255
▁Alisema	-11.0256
▁Volgens	-11.0256
▁refer	-11.0258
▁ika	-11.0258
ş	-11.0258
▁chaque	-11.0259
▁اكتوبر	-11.0262
ps	-11.0264
kama	-11.0267
dala	-11.0267
▁jwa	-11.0268
▁Mkurugenzi	-11.0268
▁vai	-11.0269
▁soomaaliyeed	-11.0269
▁Sud	-11.027
▁እኛ	-11.0271
vana	-11.0271
▁rapport	-11.0273
▁Human	-11.0273
▁ያለውን	-11.0273
▁eny	-11.0274
▁goobta	-11.0274
▁Football	-11.0276
rem	-11.0276
▁développement	-11.0277
wer	-11.0278
ሣ	-11.0279
▁odhan	-11.028
▁dhibaato	-11.028
▁Mwari	-11.0281
ser	-11.0284
ide	-11.0288
uru	-11.0289
▁fog	-11.0289
▁Gees	-11.0292
▁studio	-11.0293
▁Francisco	-11.0295
▁Foundation	-11.0295
more	-11.0296
▁mans	-11.0299
▁Midowga	-11.03
▁ገንዘብ	-11.03
ቂ	-11.0302
ries	-11.0302
▁kennis	-11.0303
▁gave	-11.0304
▁dul	-11.0304
▁ሙሉ	-11.0304
▁weliba	-11.0305
▁call	-11.0306
▁izo	-11.0306
▁uwa	-11.0308
ph	-11.0308
ጂ	-11.0308
hari	-11.0309
▁section	-11.0309
ì	-11.0311
▁matumizi	-11.0311
ghị	-11.0312
▁developed	-11.0313
▁tendo	-11.0313
▁yanke	-11.0313
▁kooxaha	-11.0318
▁ስራ	-11.0319
▁Kong	-11.0324
▁nuus	-11.0326
tiisa	-11.0326
▁Italy	-11.0328
▁Es	-11.0328
apps	-11.0329
▁IP	-11.0329
▁kali	-11.0331
▁hub	-11.0333
▁von	-11.0333
▁groups	-11.0334
▁Women	-11.0334
▁issue	-11.0334
▁pamwe	-11.0334
▁shafin	-11.0338
tter	-11.0339
▁Press	-11.034
▁indawo	-11.0341
▁bisha	-11.0342
▁አገልግሎት	-11.0342
▁badala	-11.0343
▁familie	-11.0343
▁ጀምሮ	-11.0343
siga	-11.0349
▁aminy	-11.0352
▁Museum	-11.0354
▁ai	-11.0358
▁tume	-11.0359
▁usiku	-11.0359
▁Jack	-11.036
ጌ	-11.0363
▁sheegaya	-11.0364
▁Congress	-11.0364
oow	-11.0364
ito	-11.0372
▁certains	-11.0375
ot	-11.0377
▁Estados	-11.0379
rana	-11.0379
ora	-11.038
▁الم	-11.038
maha	-11.038
▁ኤ	-11.0382
▁bua	-11.0383
▁dambeeyay	-11.0384
▁rí	-11.0384
▁antes	-11.0386
▁tsena	-11.0387
▁camp	-11.0389
▁Nyingine	-11.039
▁Hong	-11.0392
▁told	-11.0393
▁uki	-11.0396
manga	-11.0398
yl	-11.0399
▁buryo	-11.0404
▁qaadi	-11.0405
▁Bari	-11.0408
mara	-11.0408
aysaa	-11.0409
▁ልዩ	-11.0411
▁rekening	-11.0412
▁abanye	-11.0413
▁least	-11.0414
▁Madagascar	-11.0414
fan	-11.0414
▁wasa	-11.0415
▁gashay	-11.0415
▁Muungano	-11.0421
ال	-11.0421
▁afar	-11.0425
▁sị	-11.0428
▁système	-11.0428
▁።	-11.043
ን፣	-11.0432
▁DC	-11.0433
▁Britain	-11.0435
▁Bible	-11.0435
▁horumarka	-11.0435
nk	-11.0437
▁Marie	-11.0437
▁liggaam	-11.044
▁Mal	-11.0441
▁kg	-11.0443
▁qabiil	-11.0443
▁trek	-11.0443
▁socota	-11.0443
▁ụdị	-11.0444
▁regering	-11.0445
▁volana	-11.0446
▁família	-11.0448
▁maxay	-11.0449
rta	-11.0452
]]	-11.0452
▁makubwa	-11.0454
▁fulani	-11.0457
▁Rock	-11.0458
▁nommé	-11.046
▁Site	-11.0462
▁kashi	-11.0462
andro	-11.0463
▁galo	-11.0463
▁sites	-11.0464
dig	-11.0465
ooda	-11.0467
▁Pan	-11.0468
▁Johnson	-11.0469
As	-11.0469
ue	-11.0469
▁መጠን	-11.0469
▁obodo	-11.047
▁ciidan	-11.0471
▁koowaad	-11.0476
▁garoonka	-11.0477
ã	-11.0478
▁Love	-11.0478
▁importante	-11.0479
▁amani	-11.0479
▁Samuel	-11.0481
▁bidhaa	-11.0483
▁livre	-11.0484
▁opened	-11.0485
lon	-11.0486
▁°	-11.0486
▁conditions	-11.0486
▁Ó	-11.0487
▁ife	-11.0488
▁Baada	-11.0488
▁bed	-11.0488
▁Wada	-11.0491
ngwe	-11.0491
ፀ	-11.0492
▁besig	-11.0493
▁kiwango	-11.0495
▁Atiku	-11.0497
▁መረጃ	-11.0498
▁Rome	-11.0499
▁ቀ	-11.0499
▁shirkadda	-11.05
▁kammala	-11.0501
▁kubera	-11.0501
▁pane	-11.0503
▁Madaxtooyada	-11.0504
oa	-11.0504
▁wal	-11.0504
bata	-11.0506
tia	-11.0507
▁ق	-11.0511
▁ማን	-11.0513
▁ẹrọ	-11.0514
oma	-11.0515
▁intsony	-11.0522
▁keentay	-11.0523
▁Nge	-11.0523
▁sebelisa	-11.0524
daban	-11.0524
▁Long	-11.0525
▁kuendelea	-11.0525
▁Lake	-11.0526
zy	-11.0526
▁mees	-11.0528
▁Japanese	-11.0528
▁Dhexe	-11.0529
▁kansu	-11.0535
▁spel	-11.0536
lama	-11.0538
▁gihugu	-11.0539
aysa	-11.054
▁groter	-11.054
▁rôle	-11.054
▁YouTube	-11.0541
▁signed	-11.0543
▁daro	-11.0544
▁gona	-11.0545
▁EE	-11.0546
▁lot	-11.0546
▁siri	-11.0547
▁kw	-11.0548
▁eintlik	-11.055
▁Yusuf	-11.0551
▁anaty	-11.0555
▁Herbal	-11.0555
ير	-11.0556
set	-11.0558
▁Tinubu	-11.056
▁pano	-11.0566
kuna	-11.0568
▁rest	-11.0572
eysaa	-11.0574
▁teng	-11.0574
▁mini	-11.0576
▁saaro	-11.0578
nana	-11.0583
▁verlede	-11.0588
▁umma	-11.0588
▁Asia	-11.059
▁uyo	-11.0593
▁wakiwa	-11.0596
▁ወይ	-11.0597
▁FA	-11.0599
▁past	-11.0599
▁always	-11.06
▁xad	-11.0601
▁ይህንን	-11.0601
▁nto	-11.0605
diisa	-11.0608
▁ሀ	-11.0609
▁raison	-11.061
lli	-11.0611
▁igihe	-11.0612
▁unao	-11.0613
▁jirgin	-11.0613
▁ድርጅት	-11.0616
▁professor	-11.0618
▁yeelan	-11.0618
▁lokho	-11.0619
▁እግዚአብሔር	-11.0621
var	-11.0624
details	-11.0625
▁mondiale	-11.0625
▁zetu	-11.0626
ق	-11.0631
▁fetisisa	-11.0633
▁yavuze	-11.0634
▁trano	-11.0637
unga	-11.0638
elu	-11.0638
▁ከሚ	-11.0639
▁siasa	-11.0642
▁Ltd	-11.0642
ayaasha	-11.0642
▁ሲል	-11.0645
▁kudu	-11.065
▁Doorashada	-11.065
▁pamene	-11.0652
▁voorraad	-11.0656
uta	-11.0657
▁qaabka	-11.0658
▁Champions	-11.0663
▁ሁሉም	-11.0663
▁doel	-11.0667
ô	-11.067
▁mponina	-11.0671
▁certain	-11.0672
▁Unidos	-11.0673
▁ተስፋ	-11.0673
▁horumarinta	-11.0675
▁natao	-11.0676
jw	-11.0677
▁Haka	-11.0677
▁sommige	-11.0678
▁Babban	-11.068
▁Ndipo	-11.0681
Chi	-11.0681
▁zasu	-11.0683
off	-11.0683
abi	-11.0684
▁Wilaya	-11.0685
▁caalamiga	-11.0688
▁mwili	-11.0688
▁Qaran	-11.069
▁abubuwa	-11.0694
▁mú	-11.0694
▁wapi	-11.0695
▁Dkt	-11.0695
▁Mont	-11.0697
▁ሞ	-11.07
▁Wasaaraha	-11.0701
▁appointed	-11.0703
ፎ	-11.0705
▁yomwe	-11.0707
▁aarde	-11.0708
ering	-11.0712
▁jecel	-11.0712
▁Sasa	-11.0713
▁eerder	-11.0717
ike	-11.0717
▁info	-11.0717
▁mayar	-11.0717
▁wag	-11.0717
▁Fe	-11.0721
▁Meer	-11.0723
tjies	-11.0723
▁pouvoir	-11.0727
▁players	-11.0728
▁sau	-11.0728
▁kulanka	-11.073
▁charge	-11.073
kuma	-11.0733
non	-11.0734
▁added	-11.0734
▁read	-11.0735
▁Karin	-11.0735
▁jiri	-11.0737
▁Siciid	-11.0739
▁Texas	-11.0742
▁Mc	-11.0745
title	-11.0746
para	-11.0747
yadda	-11.0748
▁platform	-11.0751
▁ይችላል	-11.0751
▁rais	-11.0752
holo	-11.0754
▁Mama	-11.0754
▁gasar	-11.0755
▁aheyd	-11.0755
يل	-11.0755
ገ	-11.076
èrent	-11.0761
▁Kingdom	-11.0763
▁FM	-11.0765
▁située	-11.0765
ان	-11.0765
▁porte	-11.0766
▁MU	-11.0771
▁Mhe	-11.0771
▁collection	-11.0776
▁nature	-11.0777
▁dawlad	-11.0779
▁Daahir	-11.0779
ول	-11.0779
▁daarop	-11.078
yihiin	-11.0781
▁እጅግ	-11.0781
▁ŵanthu	-11.0783
ሐ	-11.0784
▁federal	-11.0785
▁hanya	-11.0786
▁Wasu	-11.0788
▁ruo	-11.079
▁ቡድን	-11.0791
▁maalintii	-11.0791
▁tokoa	-11.0794
▁Bin	-11.0796
▁kesi	-11.0796
▁uso	-11.0797
▁uthi	-11.0798
Kwa	-11.0803
ris	-11.0804
▁aanan	-11.0805
▁ndiku	-11.0808
▁rage	-11.0808
▁ሲያ	-11.0809
keena	-11.0811
▁harkokin	-11.0812
▁kuyi	-11.0812
▁Jehovha	-11.0813
▁campaign	-11.0814
▁pataki	-11.0815
▁How	-11.0815
▁formed	-11.0817
▁gina	-11.0819
▁dhexeeya	-11.0821
▁matsalar	-11.0821
▁Sea	-11.0823
▁akoko	-11.0826
ça	-11.0826
ismo	-11.0828
▁Junie	-11.0833
▁dès	-11.0833
▁Ch	-11.0836
▁Spanish	-11.0847
▁goob	-11.0848
▁Berlin	-11.0848
▁لاك	-11.0849
▁Rose	-11.0849
▁PC	-11.085
▁USA	-11.0851
▁Roma	-11.0853
▁kaddib	-11.0857
mọ	-11.0857
▁hoë	-11.0858
dis	-11.0859
▁ديسمبر	-11.0859
▁Midoobay	-11.0859
▁naby	-11.0862
▁waku	-11.0865
▁história	-11.0869
▁vriende	-11.0872
ب	-11.0873
▁bus	-11.0875
▁parents	-11.0875
▁kadhaa	-11.0875
▁በአንድ	-11.088
▁Juma	-11.0882
▁vano	-11.0882
▁vote	-11.0882
▁Business	-11.0884
▁alguns	-11.0884
▁bil	-11.0888
▁déjà	-11.0888
langa	-11.089
ፃ	-11.0891
▁filan	-11.0893
▁musical	-11.0899
▁Ve	-11.0901
▁ح	-11.0902
▁nous	-11.0902
▁Kerk	-11.0904
▁Force	-11.0908
ራት	-11.0909
ayeen	-11.091
▁HD	-11.0917
bwa	-11.0919
lana	-11.0919
▁able	-11.0919
▁ي	-11.0919
▁bwanji	-11.0923
are	-11.0923
▁waɗanda	-11.0924
▁ever	-11.0925
▁ruwan	-11.0925
▁região	-11.0928
▁Cor	-11.0928
▁emhlabeni	-11.0929
▁tête	-11.093
ize	-11.0931
▁oil	-11.0933
▁ነ	-11.0934
▁inaweza	-11.0935
▁gas	-11.0936
▁Januarie	-11.0937
ence	-11.0938
▁dhaw	-11.0938
▁chakula	-11.0939
▁sob	-11.094
ez	-11.0941
▁Social	-11.0942
▁wararka	-11.0943
▁Dowlad	-11.0944
▁corps	-11.0946
▁Chicago	-11.0947
▁درست	-11.0956
ami	-11.0957
▁nataon	-11.0958
▁Amerikaanse	-11.096
▁እንኳን	-11.0962
▁Amazon	-11.0964
▁ndugu	-11.0966
pin	-11.0966
▁Kikwete	-11.0968
▁average	-11.0974
▁Pen	-11.0974
▁በርካታ	-11.0974
▁karamar	-11.0977
▁mida	-11.0977
ጠ	-11.0977
▁seun	-11.098
▁د	-11.0982
▁vachi	-11.0982
▁transport	-11.0984
▁little	-11.0985
olo	-11.0985
kata	-11.0986
▁←	-11.0986
kaa	-11.0987
maa	-11.0989
▁Lord	-11.099
▁woman	-11.0993
Ja	-11.0995
ተን	-11.0997
▁issues	-11.1001
▁HA	-11.1003
▁tura	-11.1004
▁Mexico	-11.1006
▁Ibraahim	-11.1009
del	-11.101
▁zita	-11.101
▁tseba	-11.1016
▁Simon	-11.1018
▁Good	-11.1019
amini	-11.1019
▁Men	-11.1021
▁probleem	-11.1022
▁nefa	-11.1023
▁Augustus	-11.1025
▁xaaladda	-11.1025
▁sax	-11.1031
▁kuweka	-11.1032
▁islamarkaana	-11.1033
▁Barre	-11.1033
▁Open	-11.1033
▁makelaars	-11.1035
▁wen	-11.1035
▁mrefu	-11.1035
▁yanayo	-11.1036
▁daukar	-11.1037
▁neku	-11.1037
mark	-11.1041
▁droit	-11.1046
▁got	-11.1047
▁jeediyay	-11.1049
gala	-11.1051
ሪያ	-11.1053
▁bur	-11.1054
▁ahy	-11.1056
▁Trust	-11.1058
▁basu	-11.1059
atu	-11.1061
ezi	-11.1061
▁مايو	-11.1061
gula	-11.1063
▁cika	-11.1064
▁character	-11.1067
▁Roman	-11.107
▁founded	-11.1071
▁Jamhuri	-11.1071
▁Ọlọ́run	-11.1072
Man	-11.1073
▁tog	-11.1075
ኸ	-11.1075
Jo	-11.1076
▁communes	-11.1081
ጃ	-11.1082
▁provide	-11.1087
▁Edward	-11.1088
▁arimaha	-11.1089
dal	-11.1091
▁ujenzi	-11.1091
▁letsatsi	-11.1092
▁Joe	-11.1093
ahay	-11.1094
▁ابريل	-11.1096
▁umwe	-11.1098
index	-11.1098
▁kin	-11.1099
▁siin	-11.1099
▁Old	-11.1103
▁vyombo	-11.1105
rt	-11.1107
bele	-11.1108
▁Oktober	-11.1109
▁parties	-11.1109
▁Madagasikara	-11.111
▁bid	-11.111
▁Qatar	-11.1113
▁means	-11.1114
low	-11.1114
▁bilaabo	-11.1114
mani	-11.1119
▁Elizabeth	-11.1119
▁Saka	-11.112
▁ahay	-11.1121
dale	-11.1122
▁Nacional	-11.1122
▁Koonfur	-11.1122
deen	-11.1124
▁Microsoft	-11.1124
mva	-11.1126
▁dibadda	-11.1126
▁Naijiria	-11.1127
kulu	-11.1128
▁ngendlela	-11.1132
kuru	-11.1133
▁gan	-11.1134
tive	-11.1135
▁Gaas	-11.1137
mwa	-11.1137
mis	-11.1138
▁nee	-11.1142
▁Win	-11.1143
▁double	-11.1143
▁Selon	-11.1145
ille	-11.1146
▁dhisan	-11.1147
▁kujua	-11.1149
▁Arts	-11.1154
▁mace	-11.1154
▁events	-11.1155
ሴ	-11.1157
▁material	-11.1159
▁lengo	-11.116
ks	-11.1161
▁Bara	-11.1164
▁Australian	-11.1166
▁voordat	-11.1166
bit	-11.1167
▁millions	-11.1168
▁exemple	-11.1168
▁Yan	-11.1168
▁gold	-11.117
▁ambacho	-11.117
▁Male	-11.117
▁اغسطس	-11.1171
▁bei	-11.1173
kh	-11.1173
▁ibyo	-11.1175
▁states	-11.1176
▁port	-11.1176
▁Cismaan	-11.1176
▁legal	-11.118
vam	-11.118
يد	-11.1182
▁ministre	-11.1184
naij	-11.1185
▁ናቸው።	-11.1187
▁acordo	-11.1187
▁karshe	-11.1189
▁egwuregwu	-11.1189
▁لل	-11.119
ቻ	-11.1191
▁ዜና	-11.1191
▁caca	-11.1193
idda	-11.1194
▁Pu	-11.1194
▁tsawon	-11.1195
▁biyar	-11.1196
▁galeen	-11.1196
share	-11.1199
▁verhouding	-11.1203
▁helaan	-11.1205
▁Malam	-11.1208
▁rahoton	-11.1208
▁maza	-11.1208
ens	-11.121
▁نوفمبر	-11.1213
ንግ	-11.1215
▁fama	-11.1215
▁light	-11.1216
▁brother	-11.1217
▁handelaars	-11.122
▁indien	-11.122
▁See	-11.1222
ተር	-11.1223
▁داير	-11.1225
Lo	-11.1225
▁damu	-11.1225
▁Han	-11.1229
▁ab	-11.1234
tie	-11.1234
▁á	-11.1236
▁ɗaya	-11.1237
▁bandhigay	-11.1239
▁contact	-11.124
▁Other	-11.1241
▁samayn	-11.1241
▁matatizo	-11.1242
▁although	-11.1242
▁waxey	-11.1244
▁yeeshay	-11.1245
▁البروج	-11.1247
▁isna	-11.1247
▁recorded	-11.1248
▁milyan	-11.1252
▁doorasho	-11.1253
ኛው	-11.1253
▁askari	-11.1257
▁Chiuta	-11.1259
▁ج	-11.1261
▁furay	-11.1262
▁Mana	-11.1263
ዴ	-11.1264
eto	-11.1267
ap	-11.1268
▁sold	-11.1271
▁yaba	-11.1272
▁Kasa	-11.1273
▁አካባቢ	-11.1274
▁mpango	-11.1275
zwi	-11.1275
▁vitu	-11.1279
▁este	-11.1279
gba	-11.1279
▁chọrọ	-11.128
▁regtig	-11.1282
▁መብት	-11.1283
▁shows	-11.1284
▁Shirka	-11.1287
ኖች	-11.1288
▁eet	-11.1289
▁Spika	-11.1291
ጀ	-11.1294
▁Your	-11.1295
▁yona	-11.1297
▁market	-11.1298
▁Blog	-11.1298
▁فبراير	-11.1298
▁troisième	-11.1298
▁genoem	-11.1299
▁maalmood	-11.1311
pewa	-11.1312
dooda	-11.1312
ጊ	-11.1313
iyay	-11.1313
▁Mike	-11.1321
▁ይህም	-11.1321
▁sannadkii	-11.1328
▁sekere	-11.1331
▁studies	-11.1332
▁molemo	-11.1332
▁Project	-11.1333
▁gelede	-11.1333
▁hayaan	-11.1334
▁jẹ́	-11.1336
▁province	-11.1339
▁ል	-11.1339
▁Prince	-11.1339
▁novo	-11.134
▁Tags	-11.1341
▁bude	-11.1344
gh	-11.1344
▁leading	-11.1345
▁zvinhu	-11.1346
▁upon	-11.1346
▁uJehova	-11.1346
gel	-11.1347
▁stap	-11.1347
▁review	-11.1349
▁uri	-11.135
▁danbe	-11.1355
▁Hadlay	-11.1356
▁noqdaan	-11.1356
▁meet	-11.1357
▁enfants	-11.1358
▁Yemen	-11.1359
▁Saturday	-11.1359
▁haraka	-11.1361
▁Ethiopian	-11.1364
▁admin	-11.1364
▁Championship	-11.1364
▁eziningi	-11.1365
▁bereik	-11.1365
▁seng	-11.1367
▁talagalay	-11.1368
▁kuchokera	-11.1369
▁mundo	-11.1371
▁soms	-11.1371
▁Val	-11.1374
▁Abdi	-11.1378
▁Maamul	-11.1381
፦	-11.1385
▁uun	-11.1385
▁estado	-11.1386
▁badda	-11.1386
▁qalabka	-11.1386
▁ontwikkel	-11.1389
▁doonta	-11.1389
▁pay	-11.1389
▁Blue	-11.1391
▁songs	-11.1392
▁hang	-11.1393
▁kimataifa	-11.1394
▁beheer	-11.1397
▁qoraal	-11.1401
kuba	-11.1401
▁Soos	-11.1402
▁wado	-11.1402
▁ፓርቲ	-11.1407
▁eng	-11.1409
▁fursa	-11.1412
Ar	-11.1414
Je	-11.1415
▁hudu	-11.1415
▁nombreuses	-11.1418
▁በሚል	-11.1421
▁vinnig	-11.1422
▁eles	-11.1423
vela	-11.1426
▁muntu	-11.1428
▁Sonder	-11.1428
▁wacce	-11.143
▁présente	-11.143
▁Ile	-11.143
tari	-11.1432
▁wina	-11.1432
▁Tra	-11.1433
▁Masu	-11.1434
▁meelaha	-11.1436
▁membre	-11.1437
▁cilmi	-11.1438
ties	-11.1439
▁roman	-11.1441
wing	-11.1443
saba	-11.1443
▁adza	-11.1444
▁Lees	-11.1444
▁yarda	-11.1445
▁ሐ	-11.1445
ena	-11.1449
▁followed	-11.145
▁Ela	-11.145
▁kisha	-11.145
▁culus	-11.1457
▁Albert	-11.1458
far	-11.1459
ef	-11.1461
▁Miss	-11.1462
▁sidan	-11.1462
aji	-11.1466
▁sistema	-11.1468
kora	-11.147
▁Bala	-11.1471
▁Muslim	-11.1473
▁benshi	-11.1475
▁Most	-11.1476
▁jirey	-11.1477
cal	-11.1481
▁Khan	-11.1482
▁combat	-11.1483
▁Ham	-11.1483
▁mukuru	-11.1485
hamba	-11.1487
▁hwe	-11.1488
▁sary	-11.1489
▁Anna	-11.1491
▁Ad	-11.1494
▁rue	-11.1495
▁አብ	-11.1496
rus	-11.1497
▁havia	-11.1498
ṣe	-11.1499
▁abinda	-11.1503
▁Technology	-11.1504
lele	-11.1506
▁antwoord	-11.1506
▁لا	-11.1507
▁debut	-11.1507
▁EU	-11.151
agit	-11.1512
▁Misy	-11.1515
▁lalàna	-11.1515
ntsika	-11.1515
▁Naira	-11.1518
armée	-11.1518
eurs	-11.1518
Mat	-11.1519
tla	-11.1519
▁disse	-11.1519
▁dhacdo	-11.1521
▁Carabta	-11.1521
▁eram	-11.1522
▁bile	-11.1523
▁font	-11.1523
▁anjara	-11.1525
▁lika	-11.1525
▁aanvaar	-11.1525
ع	-11.1525
▁mika	-11.1526
llo	-11.1529
▁semi	-11.1529
wel	-11.1531
▁volwasse	-11.1531
▁caan	-11.1532
▁magacaabo	-11.1532
stel	-11.1533
vis	-11.1536
▁dhalinyarada	-11.1537
▁ndoa	-11.1538
▁geskryf	-11.1539
▁already	-11.1541
▁lona	-11.1543
▁Ulaya	-11.1543
▁የተለያዩ	-11.1544
▁elected	-11.1544
▁Watanzania	-11.1545
▁watter	-11.1549
imi	-11.1549
▁nema	-11.1556
▁somaliland	-11.1561
well	-11.1562
▁Beste	-11.1562
▁verskil	-11.1567
▁الارض	-11.1569
▁siiyay	-11.1569
kura	-11.1569
▁ceux	-11.1571
▁Friday	-11.1571
▁ọhụrụ	-11.1572
▁gelin	-11.1574
▁economic	-11.1575
▁ṣugbọn	-11.1575
▁yaraan	-11.1576
gue	-11.1576
▁veroorsaak	-11.1577
▁batun	-11.1578
▁besef	-11.1578
▁risiko	-11.1582
▁Hoos	-11.1583
▁involved	-11.1585
▁[[	-11.1586
▁kant	-11.1587
▁Last	-11.1589
▁Ngati	-11.1589
▁surface	-11.1595
▁changamoto	-11.1595
▁mechi	-11.1598
▁EA	-11.1599
▁Awdal	-11.1601
▁kwezi	-11.1602
▁Estado	-11.1602
▁People	-11.1603
gbe	-11.1605
▁Oku	-11.1605
▁dandalin	-11.1606
▁commercial	-11.1606
▁ouers	-11.1608
▁trabalho	-11.1609
▁ኤርትራ	-11.1609
▁iyagu	-11.161
▁Efa	-11.161
▁binafsi	-11.1611
▁Kuti	-11.1611
▁carrière	-11.1615
▁Liefde	-11.1615
▁mradi	-11.1616
▁tani	-11.1619
▁Tun	-11.1619
▁mujibu	-11.1621
▁yanayin	-11.1622
▁mna	-11.1622
▁auto	-11.163
moto	-11.1633
▁Tim	-11.1633
mail	-11.1637
▁dadweynaha	-11.1638
amente	-11.1639
▁kusan	-11.1639
ትና	-11.1639
▁dhaawac	-11.164
teeda	-11.1642
▁cet	-11.1643
▁Police	-11.1645
▁ኪ	-11.1648
▁moa	-11.1648
los	-11.165
ō	-11.165
▁ido	-11.1652
▁behind	-11.1652
azi	-11.1652
▁ዋጋ	-11.1653
▁beskou	-11.1655
▁tafiya	-11.1657
▁Public	-11.166
▁agbara	-11.1662
sọ	-11.1663
▁mwanamke	-11.1663
▁Apple	-11.1668
▁Deegaanka	-11.1669
▁behoort	-11.167
ouest	-11.1671
▁unique	-11.1671
▁ngata	-11.1673
▁vyf	-11.1674
▁umri	-11.1675
▁fez	-11.1675
▁Machine	-11.1675
▁Science	-11.1676
▁fu	-11.1676
▁Young	-11.1678
▁garan	-11.1679
▁daughter	-11.168
▁período	-11.1682
back	-11.1685
▁Oktoba	-11.1685
▁Duniya	-11.1687
▁jogo	-11.1688
ò	-11.1691
▁Desember	-11.1692
▁mudo	-11.1694
▁bakhe	-11.1694
▁Ber	-11.1696
burg	-11.1697
▁Products	-11.1697
▁há	-11.1697
▁Leo	-11.1698
▁guns	-11.1699
▁stage	-11.1699
▁ugbu	-11.1701
▁track	-11.1701
▁tahaka	-11.1701
.”+	-11.1701
▁move	-11.1703
▁SE	-11.1703
▁rubuta	-11.1704
▁email	-11.1704
▁መሠረት	-11.1704
▁baxa	-11.1707
▁nandritra	-11.1708
ako	-11.1711
▁tusaale	-11.1714
bere	-11.1715
▁mpira	-11.1715
▁eego	-11.1716
pt	-11.1717
▁gewoonlik	-11.1718
▁VI	-11.1718
▁dhibaatada	-11.1719
mpa	-11.1719
ልን	-11.172
ِ	-11.172
▁joogto	-11.172
église	-11.1724
▁Mwana	-11.1725
▁Norway	-11.1727
▁ụbọchị	-11.173
▁Team	-11.1735
▁Jonathan	-11.1739
▁wenyewe	-11.1741
▁Waar	-11.1741
Ge	-11.1744
▁sandan	-11.1747
▁status	-11.1748
▁Ghana	-11.1749
tou	-11.1751
▁morte	-11.1752
▁foana	-11.1755
▁daran	-11.1756
▁esta	-11.1758
▁leef	-11.1758
▁vários	-11.1761
▁jamaa	-11.1761
▁kaNkulunkulu	-11.1762
▁above	-11.1764
▁Waxaad	-11.1765
mai	-11.1767
▁Nations	-11.1769
eysay	-11.1771
▁goobaha	-11.1772
▁lili	-11.1772
▁graag	-11.1777
▁look	-11.1783
▁gekry	-11.1785
▁Amniga	-11.1786
▁gomme	-11.1786
▁bestuur	-11.1788
époque	-11.1788
▁ground	-11.1788
▁emva	-11.1788
▁madaxa	-11.1789
▁succès	-11.1789
▁loi	-11.1791
▁betrokke	-11.1791
kon	-11.1795
▁Page	-11.1797
▁hase	-11.1798
▁fact	-11.1798
▁yethu	-11.1798
▁usalama	-11.1801
▁care	-11.1801
aro	-11.1801
jọ	-11.1804
":	-11.1806
وس	-11.1806
▁Cu	-11.1807
▁Syria	-11.181
▁eya	-11.1813
▁enye	-11.1813
▁Abdul	-11.1817
hay	-11.182
▁mita	-11.1821
lka	-11.1823
▁seven	-11.1823
▁room	-11.1827
▁የምት	-11.1828
led	-11.1829
▁kuchita	-11.183
▁prix	-11.1831
▁Records	-11.1832
▁Nda	-11.1832
▁moyenne	-11.1834
▁heerka	-11.1839
▁pekee	-11.1841
▁wonder	-11.1841
▁MO	-11.1843
▁nawe	-11.1847
▁ምርጫ	-11.1849
▁Shu	-11.185
▁makelaar	-11.1851
▁ami	-11.1856
▁Inta	-11.1858
▁nufin	-11.1859
▁Arab	-11.1859
▁hamwe	-11.186
▁Congo	-11.1868
▁hevitra	-11.1869
▁omume	-11.1874
▁kukhona	-11.1875
▁Review	-11.1875
▁Katsina	-11.1877
▁wilaya	-11.188
▁lagama	-11.1884
▁let	-11.1885
▁podem	-11.1888
▁س	-11.1889
▁timid	-11.1889
ben	-11.189
▁mabadiliko	-11.1894
▁sanarwa	-11.1895
▁senior	-11.1896
▁largest	-11.1901
qala	-11.1902
▁things	-11.1906
▁shaqeeya	-11.1907
od	-11.1912
fy	-11.1913
naya	-11.1913
pp	-11.1916
▁geskiedenis	-11.1917
▁fer	-11.1922
BA	-11.1923
▁nazo	-11.1926
gie	-11.1927
▁Since	-11.1927
uka	-11.1928
▁aikata	-11.1928
zama	-11.1929
▁isso	-11.193
▁stand	-11.193
▁Cam	-11.1932
▁horey	-11.1933
ib	-11.1937
▁fursad	-11.1938
ጢ	-11.1939
▁koko	-11.1939
▁interest	-11.194
Do	-11.194
▁kha	-11.194
▁gama	-11.1941
adas	-11.1941
▁fur	-11.1942
xigeenka	-11.1944
▁estão	-11.1945
▁يوليه	-11.1945
▁Bitcoin	-11.1946
▁qoran	-11.1946
nee	-11.1948
▁protected	-11.1949
▁música	-11.195
▁dhawaaqay	-11.195
▁akụkọ	-11.195
▁cam	-11.195
▁Sar	-11.1951
▁space	-11.1956
▁número	-11.1957
▁doonayo	-11.1959
▁ƙasar	-11.1959
▁uchumi	-11.1963
▁test	-11.1963
▁Burundi	-11.1964
▁oud	-11.1964
▁kuanzia	-11.1966
▁jọ	-11.1967
▁jeediyey	-11.1968
▁wiil	-11.1969
tende	-11.1973
Histoire	-11.1974
▁yeku	-11.1977
TM	-11.1977
▁xxx	-11.1985
▁Bur	-11.1988
▁toekoms	-11.1991
▁range	-11.1992
▁arrin	-11.1992
Pro	-11.1995
▁premiers	-11.1995
▁furan	-11.1997
ica	-11.1997
ሺ	-11.1999
kanga	-11.1999
▁Mense	-11.2002
▁waya	-11.2003
▁Sport	-11.2004
▁tẹ	-11.2005
▁Wi	-11.2006
▁mí	-11.2008
▁schools	-11.2008
▁uongozi	-11.2008
▁kaya	-11.2009
uf	-11.2009
▁Addis	-11.2013
▁done	-11.2014
▁Ab	-11.2016
▁nime	-11.2016
▁halkii	-11.2019
▁active	-11.2019
▁Guddoomiye	-11.2021
▁ያስ	-11.2022
▁siyo	-11.2023
▁orinasa	-11.2026
▁Francis	-11.2027
▁saaran	-11.2028
▁jiki	-11.2028
eeyay	-11.2028
يس	-11.203
▁ዘይ	-11.203
▁cigaba	-11.203
sies	-11.2032
▁child	-11.2032
ua	-11.2032
▁femmes	-11.2032
▁kar	-11.2038
▁Tani	-11.2039
▁Galbeed	-11.204
GA	-11.2041
▁goyon	-11.2042
shada	-11.2043
▁amince	-11.2044
▁keeni	-11.2045
▁Ireland	-11.2045
ants	-11.2048
▁dibna	-11.2049
▁kutu	-11.205
▁maoni	-11.2051
mb	-11.2051
▁leaders	-11.2052
ለን	-11.2054
▁yase	-11.2055
▁Caalamka	-11.2056
ጨ	-11.2056
RA	-11.2058
▁musiek	-11.206
▁buga	-11.2062
▁bepaal	-11.2062
▁jawaab	-11.2067
▁Although	-11.2069
▁urur	-11.207
star	-11.207
▁hotel	-11.207
▁verband	-11.2075
▁basis	-11.2076
▁sei	-11.2077
▁qa	-11.2078
▁Milan	-11.2078
▁throughout	-11.2081
gama	-11.2082
soma	-11.2083
▁east	-11.2083
gari	-11.2084
▁ላ	-11.2084
▁Badan	-11.2084
atay	-11.2086
▁taking	-11.2088
▁dareen	-11.2089
lọ	-11.2089
▁ọkan	-11.2089
▁Hore	-11.2092
▁episode	-11.2092
▁DVD	-11.2093
▁fan	-11.2097
▁Sidaa	-11.2099
▁reis	-11.2099
nza	-11.2101
▁Saudi	-11.2103
▁ayaad	-11.2106
▁stad	-11.2109
▁ninkii	-11.2111
▁prison	-11.2111
▁مهاجم	-11.2112
▁binadamu	-11.2113
▁Mataifa	-11.2113
kile	-11.2114
▁Water	-11.2114
▁nigba	-11.2115
mal	-11.2115
▁além	-11.2116
▁gaari	-11.2116
▁sunan	-11.2116
▁direct	-11.2116
mon	-11.2119
▁TO	-11.2123
▁idadi	-11.2123
▁início	-11.2123
content	-11.2124
▁Geeska	-11.2125
▁Beach	-11.2125
▁idinka	-11.2126
ላት	-11.2131
▁Andrew	-11.2132
▁mkoa	-11.2133
▁laquelle	-11.2135
▁milhões	-11.2135
▁onthou	-11.2135
▁Nova	-11.2138
▁elo	-11.2139
nze	-11.2141
▁belangrike	-11.2142
▁Igbo	-11.2143
▁msaada	-11.2143
▁month	-11.2146
▁either	-11.2147
▁NG	-11.2149
nwa	-11.2151
kolo	-11.2152
▁Lors	-11.2153
▁rasa	-11.2153
gera	-11.2155
▁Mag	-11.2155
▁decided	-11.2156
▁woon	-11.2157
▁ty	-11.2157
▁ilimi	-11.2157
▁maison	-11.2158
TO	-11.2161
▁rano	-11.2161
▁efe	-11.2162
▁através	-11.2164
▁cerca	-11.2164
▁Garoowe	-11.2166
▁ቅ	-11.2171
▁tuta	-11.2172
▁xiriirka	-11.2172
▁Democratic	-11.2175
▁bangaren	-11.2175
oyin	-11.2175
Ro	-11.2177
▁kusukela	-11.2178
▁zoku	-11.2178
▁Research	-11.2178
jua	-11.2179
▁época	-11.2179
mia	-11.2179
▁provided	-11.218
ipa	-11.2186
▁sahihi	-11.2188
▁families	-11.219
▁hiki	-11.2191
▁Railway	-11.2193
▁mars	-11.2194
▁Slots	-11.2195
▁pi	-11.2195
▁outside	-11.2196
▁Story	-11.2198
▁author	-11.2201
▁Baraza	-11.2201
▁Qof	-11.2202
▁according	-11.2203
pie	-11.2204
▁ngakho	-11.2206
uun	-11.2206
▁Board	-11.2207
▁access	-11.2209
hun	-11.2212
▁simple	-11.2213
▁Wall	-11.2213
▁kotu	-11.2214
faa	-11.2214
▁Patrick	-11.2214
▁Way	-11.2218
New	-11.2219
▁Mogadishu	-11.2222
▁umeme	-11.2223
▁ماتت	-11.2224
▁Maak	-11.2227
▁THE	-11.2228
all	-11.2229
▁plaaslike	-11.2229
tsha	-11.223
▁haweenka	-11.2231
▁kuchukua	-11.2233
▁ontmoet	-11.2233
▁Warm	-11.2233
▁የምን	-11.2234
▁vezes	-11.2235
><	-11.2236
▁kaasoo	-11.2236
tos	-11.2237
▁west	-11.2239
▁grâce	-11.2239
autre	-11.2243
▁contract	-11.2245
▁especially	-11.2245
▁miljoen	-11.2245
▁degree	-11.2246
▁njani	-11.2246
▁retour	-11.2247
dey	-11.2248
baovao	-11.2251
Mar	-11.2251
▁xagga	-11.2256
▁teams	-11.2256
▁biyan	-11.2256
▁student	-11.2258
▁matakin	-11.2258
▁ruux	-11.2261
▁devant	-11.2261
▁suuqa	-11.2261
▁samy	-11.2264
not	-11.2266
▁Hadaba	-11.2266
▁dini	-11.2267
▁xog	-11.2269
▁uno	-11.227
▁USD	-11.2272
wp	-11.2277
lis	-11.2278
based	-11.2282
نا	-11.2284
▁Umar	-11.2286
▁standard	-11.2289
ft	-11.229
▁del	-11.2291
▁nova	-11.2291
▁kenya	-11.2293
▁ሀገር	-11.2294
▁shugaba	-11.2295
▁taageero	-11.2298
▁wins	-11.23
▁goal	-11.23
▁stated	-11.23
▁mode	-11.2302
▁Yana	-11.2303
obi	-11.2303
Bu	-11.2303
▁ule	-11.2304
▁sekta	-11.2308
▁Tamin	-11.2312
▁saying	-11.2312
▁ujumbe	-11.2313
▁Kuwa	-11.2316
▁relations	-11.2317
house	-11.2318
afi	-11.2318
rí	-11.2324
▁ሽ	-11.2324
▁ልጆች	-11.2326
ooyinka	-11.2327
▁Wata	-11.2327
▁meeting	-11.2327
▁fela	-11.2328
▁نيو	-11.2329
ŵa	-11.2329
misa	-11.2331
ነቱ	-11.2331
▁Fotos	-11.2332
▁parti	-11.2335
sch	-11.2336
▁dernière	-11.2336
▁Banda	-11.2337
toerana	-11.2338
rá	-11.2338
▁poste	-11.234
▁kisiasa	-11.2341
kufa	-11.2342
▁train	-11.2342
Con	-11.2342
▁Eng	-11.2345
▁natuurlik	-11.2346
▁siiyey	-11.2346
▁xafiiska	-11.2346
▁Umu	-11.235
▁Sool	-11.235
▁Gal	-11.2355
idi	-11.2356
▁gode	-11.2357
▁oë	-11.2364
adin	-11.2366
▁arko	-11.2367
▁account	-11.237
▁amandla	-11.237
▁igi	-11.2372
kia	-11.2373
▁volk	-11.2373
▁pussy	-11.2373
▁ganacsi	-11.2375
Europe	-11.2378
▁wese	-11.238
▁Gun	-11.238
▁fazer	-11.2382
▁ema	-11.2386
▁qala	-11.2387
▁unu	-11.2387
▁sh	-11.2387
▁rather	-11.2388
▁alalan	-11.2388
▁includes	-11.2391
lelo	-11.2391
▁respect	-11.2392
▁success	-11.2392
twa	-11.2393
▁juna	-11.2393
▁Indlela	-11.2394
▁Zealand	-11.2398
▁kotun	-11.2398
▁previous	-11.2398
▁Messi	-11.2399
▁shaida	-11.2399
▁ayelujara	-11.24
▁beelaha	-11.2401
panjakana	-11.2401
▁ان	-11.2402
▁création	-11.2404
▁koku	-11.2405
▁fit	-11.2405
▁Isa	-11.2405
▁tree	-11.2408
▁experience	-11.2409
▁quatro	-11.241
iyi	-11.241
▁Suldaan	-11.2411
▁haba	-11.2411
ቷ	-11.2412
▁Ireo	-11.2413
sing	-11.2413
▁anka	-11.2413
gwe	-11.2414
▁يونيه	-11.2415
በር	-11.2416
lá	-11.2416
ä	-11.2419
▁waarskynlik	-11.2423
oyinka	-11.2424
tyd	-11.2425
▁talada	-11.2425
▁saartay	-11.2426
▁Uhuru	-11.2426
▁TI	-11.2427
▁ለምን	-11.2428
▁اتأسس	-11.2434
▁bane	-11.2438
gra	-11.2441
aysay	-11.2442
Di	-11.2443
▁karatu	-11.2447
▁probleme	-11.2454
hare	-11.2455
tura	-11.2464
▁WordPress	-11.2465
▁Time	-11.2466
▁digital	-11.2467
▁storie	-11.2469
Tu	-11.2469
ረው	-11.2473
▁yaabaa	-11.2474
▁Ala	-11.2474
huis	-11.2475
▁el	-11.2476
▁dá	-11.2477
dwe	-11.2479
▁femme	-11.248
name	-11.2482
▁byvoorbeeld	-11.2483
▁kuingia	-11.2484
▁presidente	-11.2484
▁Qur	-11.2485
ização	-11.2489
▁miiran	-11.2493
▁jeune	-11.2494
ቐ	-11.2495
▁binciken	-11.2496
▁features	-11.2496
▁Kamar	-11.2499
▁ankehitriny	-11.25
▁skoon	-11.2508
▁Cilmi	-11.2509
lt	-11.2509
▁App	-11.251
▁uzo	-11.2512
▁Guerre	-11.2513
▁hobane	-11.2514
piga	-11.2515
Va	-11.2516
▁rundunar	-11.2517
▁አቀፍ	-11.2519
▁Sub	-11.2519
▁hommes	-11.252
jpg	-11.2522
baan	-11.2524
▁tornou	-11.2524
Dit	-11.2524
ário	-11.2525
ug	-11.2526
tas	-11.2529
mpi	-11.253
▁kwesịrị	-11.2532
▁Imaaraadka	-11.2532
▁bloed	-11.2533
▁particular	-11.2533
▁Bridge	-11.2533
▁individual	-11.2533
▁nagu	-11.2536
kali	-11.2536
▁strong	-11.2536
▁designed	-11.2538
▁keep	-11.2538
▁አላ	-11.2539
▁coronavirus	-11.254
▁ተብሎ	-11.2541
▁rate	-11.2542
▁Andriamanitra	-11.2543
▁hande	-11.2543
ታል	-11.2545
Or	-11.2546
▁akili	-11.2547
bus	-11.2548
▁Izy	-11.2549
▁Kale	-11.2551
vel	-11.2553
▁yaalla	-11.2554
▁casa	-11.2555
▁verseker	-11.2556
▁አካል	-11.2557
▁kujenga	-11.2558
▁lugha	-11.2558
▁gobol	-11.2559
▁might	-11.2559
wat	-11.2559
▁sens	-11.2562
وا	-11.2563
▁Gaalkacyo	-11.2565
▁musique	-11.2565
[/	-11.2566
pen	-11.2567
▁anigu	-11.2568
▁proses	-11.2568
▁Alex	-11.257
▁Tar	-11.2572
jin	-11.2576
▁dhac	-11.2578
▁Ses	-11.2578
▁izvi	-11.2581
▁score	-11.2582
▁èèyàn	-11.2583
▁Anti	-11.2584
▁gobolada	-11.2585
▁مُدَافِع	-11.2586
▁Gudaha	-11.2586
▁yule	-11.2589
ep	-11.2589
▁ardayda	-11.259
zan	-11.2592
otu	-11.2592
▁gool	-11.2593
▁socon	-11.2593
▁masuala	-11.2594
▁habka	-11.2595
▁omgewing	-11.2597
▁karshen	-11.2598
▁ትልቅ	-11.26
በትን	-11.2601
▁eeyan	-11.2601
▁ሲሉ	-11.2601
▁አንዳንድ	-11.2602
shay	-11.2603
▁yaala	-11.2604
▁Two	-11.2604
▁Catholic	-11.2605
ሩን	-11.2605
▁Laba	-11.2606
▁tanteraka	-11.2606
toe	-11.2606
▁sommer	-11.2606
▁bantu	-11.2607
▁sports	-11.2607
▁galin	-11.2607
▁completed	-11.261
▁Area	-11.2611
▁ያል	-11.2611
▁Canadian	-11.2614
▁gharama	-11.2614
▁tala	-11.2617
▁mer	-11.2619
▁trade	-11.2622
▁buy	-11.2623
▁Kudu	-11.2623
▁yet	-11.2629
▁personal	-11.2629
▁Waddani	-11.2631
▁Led	-11.2633
sto	-11.2634
▁xubno	-11.2635
bhe	-11.2636
rwe	-11.2637
▁angu	-11.2637
kaas	-11.2639
eli	-11.2644
▁dubu	-11.2646
▁yeo	-11.2646
▁Metropolitan	-11.2647
▁Sanata	-11.2648
▁Monday	-11.265
▁população	-11.265
cher	-11.2651
▁Legas	-11.2654
dom	-11.2654
▁num	-11.2655
ቪ	-11.2655
▁marti	-11.2656
▁NO	-11.2658
▁Februarie	-11.266
tero	-11.2661
▁thought	-11.2661
▁Metro	-11.2663
ava	-11.2665
iil	-11.2667
▁res	-11.2672
▁Oor	-11.2674
▁figure	-11.2674
▁aujourd	-11.2675
iba	-11.2676
▁sifa	-11.2677
▁towards	-11.2678
media	-11.2681
▁sharaf	-11.2686
▁ሚሊዮን	-11.2687
suka	-11.2689
▁TCDD	-11.2689
▁kwakhe	-11.269
▁magazine	-11.269
▁lebaka	-11.2691
▁almost	-11.2691
▁Committee	-11.2691
▁aantal	-11.2692
▁ambony	-11.2692
▁ahan	-11.2692
▁sace	-11.2693
▁fight	-11.2693
▁ሳ	-11.2693
▁coach	-11.2694
▁Ii	-11.2699
▁Bad	-11.2702
▁bayanai	-11.2703
▁donne	-11.2705
▁joogay	-11.2705
▁dhiig	-11.2708
▁kya	-11.2709
▁remained	-11.2709
▁maatskappy	-11.2711
eke	-11.2712
xe	-11.2712
▁tsiku	-11.2717
▁eight	-11.2717
▁geleentheid	-11.2719
▁beaucoup	-11.2721
▁sebaka	-11.2721
▁nri	-11.2726
▁zvaka	-11.2726
uku	-11.2726
▁zime	-11.2728
▁haifar	-11.2728
anti	-11.2728
Ons	-11.2729
rka	-11.2729
▁really	-11.2732
▁tsaya	-11.2734
▁Papa	-11.2737
▁verwys	-11.2739
▁gukora	-11.2739
bad	-11.2741
▁protection	-11.2743
Vi	-11.2743
▁ratsy	-11.2743
mera	-11.2744
gon	-11.2746
▁cadre	-11.2747
teur	-11.2747
▁kufikia	-11.2748
▁brought	-11.2748
▁loss	-11.2749
▁temporada	-11.275
▁tanàna	-11.275
▁metal	-11.2751
▁gemeente	-11.2753
▁لينكولن	-11.2753
▁management	-11.2754
ዙ	-11.2755
▁valuta	-11.2755
▁heel	-11.2755
▁nina	-11.2755
Waa	-11.2756
▁nation	-11.2759
▁opening	-11.2761
▁Christ	-11.2761
raad	-11.2764
▁shugabannin	-11.2768
▁Fara	-11.2768
▁keessatti	-11.2769
▁yeeshee	-11.277
wọ	-11.2771
▁wawili	-11.2771
▁fille	-11.2772
▁aaminsan	-11.2773
rah	-11.2773
▁ዕ	-11.2774
▁maand	-11.2774
▁aman	-11.2777
መር	-11.2777
▁Views	-11.2778
Ny	-11.2778
▁ole	-11.2778
▁kuyo	-11.2782
▁juin	-11.2785
▁AC	-11.2786
aye	-11.2786
▁markay	-11.2787
ችው	-11.2788
ule	-11.2789
dat	-11.2794
umba	-11.2797
dla	-11.2798
▁ው	-11.2801
▁KI	-11.2802
▁ምክር	-11.2802
▁kadibna	-11.2803
▁koste	-11.2803
▁joogo	-11.2804
а	-11.2808
▁SEO	-11.281
▁Sani	-11.281
amp	-11.2813
▁wadamada	-11.2814
▁feit	-11.2816
▁Its	-11.2816
jan	-11.2818
▁Kusini	-11.2819
▁ummadda	-11.2821
▁Qaar	-11.2821
▁hanao	-11.2821
ship	-11.2822
▁Watu	-11.2822
▁problem	-11.2822
▁Sara	-11.2822
▁iru	-11.2824
▁ngaphambi	-11.2829
▁soveel	-11.2829
▁aangesien	-11.283
▁bayi	-11.2832
▁vrae	-11.2833
▁abuur	-11.2834
▁Baibulo	-11.2834
▁featured	-11.2836
▁ከአ	-11.2838
▁ava	-11.2842
▁WAA	-11.2842
Biographie	-11.2842
▁Taliyaha	-11.2843
{	-11.2846
▁instead	-11.2847
▁kwamitin	-11.2847
▁Madax	-11.2847
▁farin	-11.2848
wona	-11.2849
après	-11.285
▁cu	-11.285
▁Fo	-11.2852
▁Universiteit	-11.2852
▁Pi	-11.2853
▁programa	-11.2853
mira	-11.2857
▁Nuwe	-11.2858
▁©	-11.286
hlo	-11.286
▁baza	-11.2865
▁Aw	-11.2867
▁beslis	-11.2868
▁administration	-11.2871
ves	-11.2871
sey	-11.2871
▁ይሁን	-11.2874
▁maqan	-11.2874
ung	-11.2879
▁federaalka	-11.288
▁በሙሉ	-11.288
ques	-11.2882
▁vis	-11.2885
▁Kulan	-11.2887
▁Scott	-11.2888
daha	-11.2889
▁Station	-11.2889
▁فيلم	-11.2889
▁cudurka	-11.2891
bou	-11.2892
▁ኢየሱስ	-11.2893
▁olana	-11.2893
▁kachasị	-11.2896
▁dokar	-11.2901
▁babbar	-11.2901
▁persoonlike	-11.2903
▁gizo	-11.2906
ekwu	-11.2906
▁inganta	-11.2906
ቸውን	-11.2907
rig	-11.2909
▁entanto	-11.2912
▁performed	-11.2912
alka	-11.2915
ms	-11.2917
▁waajib	-11.2919
▁dadaal	-11.2919
▁tunanin	-11.292
ح	-11.2921
▁existe	-11.2922
▁ጥቅም	-11.2922
▁barabara	-11.2922
ndu	-11.2924
▁jawaabay	-11.2924
some	-11.2926
▁Allaah	-11.2928
air	-11.2928
▁devido	-11.2929
▁kiongozi	-11.2929
▁bohlokoa	-11.2931
▁peace	-11.2931
rat	-11.2931
▁mang	-11.2932
▁côté	-11.2934
koma	-11.2935
▁dari	-11.2935
▁ጽ	-11.2937
anga	-11.2937
▁irratti	-11.2938
dya	-11.2938
fanya	-11.294
▁ijọba	-11.2942
▁mokhoa	-11.2943
YA	-11.2943
maliza	-11.2944
▁arziki	-11.2944
yana	-11.2945
▁Wes	-11.2946
▁Wednesday	-11.2949
Hu	-11.2949
▁doonin	-11.295
là	-11.2955
▁volle	-11.2955
funda	-11.2956
nene	-11.2956
aram	-11.2959
▁Carlos	-11.296
ስት	-11.296
bane	-11.2961
int	-11.2962
▁midka	-11.2962
▁Dutch	-11.2963
▁Valley	-11.2963
▁sort	-11.2964
▁lime	-11.2964
▁ስርዓት	-11.2966
dzo	-11.2969
▁classe	-11.2969
▁vyama	-11.297
etiti	-11.2971
▁sowel	-11.2975
ras	-11.2975
ዋን	-11.2976
è	-11.2976
▁zones	-11.2976
▁Sidaas	-11.2977
▁Sarkin	-11.298
▁uwo	-11.2983
wikipedia	-11.2983
▁qaato	-11.2984
▁ailleurs	-11.2984
▁AS	-11.2985
▁aaye	-11.2986
▁parts	-11.2987
▁ontwikkeling	-11.2987
lose	-11.2987
▁ammaanka	-11.2988
▁demande	-11.2988
▁Caafimaadka	-11.2992
▁nasarar	-11.2993
penda	-11.2994
▁marin	-11.2995
▁industry	-11.2998
▁leave	-11.2998
▁Persoonlike	-11.3
▁መሆኑ	-11.3001
▁IV	-11.3001
▁markuu	-11.3003
هم	-11.3006
▁xili	-11.3006
mme	-11.3008
▁volume	-11.3008
▁iman	-11.3009
▁Et	-11.301
▁DEG	-11.3011
▁matasa	-11.3011
▁xor	-11.3011
▁gehou	-11.3011
▁bukaci	-11.3012
Su	-11.3012
▁CHA	-11.3013
▁Agaasimaha	-11.3015
▁ش	-11.3015
sco	-11.3015
▁politika	-11.3017
▁uza	-11.3021
bank	-11.3022
tangaza	-11.3023
▁idi	-11.3023
▁Petro	-11.3024
anda	-11.3026
ث	-11.3029
▁usually	-11.303
......	-11.303
▁PA	-11.3031
▁pic	-11.3035
won	-11.3035
▁nzima	-11.3036
▁~	-11.3037
nyama	-11.3037
PA	-11.3038
▁novel	-11.3039
▁ngeke	-11.3042
α	-11.3042
asie	-11.3043
▁Kyk	-11.3043
▁دهستان	-11.3045
▁Wie	-11.3045
SE	-11.3049
▁sul	-11.3051
▁sauti	-11.3052
▁ሰላም	-11.3052
▁Jones	-11.3052
▁ture	-11.3053
▁Run	-11.3054
▁Faysal	-11.3054
▁Civil	-11.3055
▁whose	-11.3055
▁policy	-11.3056
▁halkaa	-11.3057
▁verskyn	-11.3058
▁መሪ	-11.3058
▁rubutu	-11.3059
▁DIE	-11.3059
▁Maxkamadda	-11.3062
▁ube	-11.3062
▁wabunge	-11.3062
▁በየ	-11.3063
▁አሁንም	-11.3069
▁አባላት	-11.3074
mas	-11.3074
hitaji	-11.3076
▁dare	-11.3078
▁Ahmad	-11.3079
▁phezu	-11.3079
▁Bob	-11.308
▁Dalsan	-11.308
▁ክን	-11.3081
▁connu	-11.3082
geze	-11.3082
▁passe	-11.3082
▁ቋንቋ	-11.3083
▁Ilaah	-11.3084
▁decision	-11.3084
▁século	-11.3088
▁Anyị	-11.3088
▁logo	-11.3088
▁awali	-11.309
eey	-11.309
▁وال	-11.3091
▁الله	-11.3093
▁እንተ	-11.3094
▁AL	-11.3098
▁goor	-11.3098
▁Battle	-11.31
▁heeltemal	-11.3102
▁mikasika	-11.3104
▁Muna	-11.3104
▁lugar	-11.3106
aysan	-11.3106
MO	-11.3109
My	-11.3109
▁njem	-11.3111
▁Hospital	-11.3112
▁hospital	-11.3112
▁Xamar	-11.3114
mala	-11.3115
mwi	-11.3115
▁Trans	-11.3116
dw	-11.3118
▁ቢሆን	-11.3119
▁Dodoma	-11.3121
▁gees	-11.3121
mini	-11.3123
▁Yanzu	-11.3125
ቶም	-11.3126
▁micro	-11.3127
▁Entre	-11.3129
abantu	-11.313
▁ጠቅላይ	-11.313
▁moeilik	-11.3134
▁Bello	-11.3135
aynaa	-11.3136
▁mg	-11.3137
▁cost	-11.3137
▁Williams	-11.3139
▁mji	-11.3139
aikatan	-11.3139
▁wet	-11.3141
ụ	-11.3142
▁ك	-11.3143
chukua	-11.3143
▁Mat	-11.3144
▁rose	-11.3147
kiisii	-11.3148
▁toon	-11.3148
▁waayay	-11.3149
▁vanoti	-11.315
▁kẹ	-11.3152
▁voorkom	-11.3153
▁SMS	-11.3154
▁Steve	-11.3158
▁uwe	-11.3158
▁Após	-11.316
▁male	-11.3161
▁dhisay	-11.3161
▁gwamna	-11.3162
▁Let	-11.3163
▁kwalokho	-11.3164
▁sagteware	-11.3164
▁Jackson	-11.3165
tika	-11.3166
▁ahaanba	-11.3167
ido	-11.3169
▁LE	-11.317
▁politieke	-11.317
▁Airport	-11.3171
▁Tsa	-11.3172
▁tá	-11.3173
▁buuxda	-11.3173
▁Bel	-11.3174
▁Later	-11.3175
▁sosiale	-11.3175
▁kasuwa	-11.3176
▁በተለይ	-11.3178
▁safari	-11.3178
ella	-11.318
▁grands	-11.3181
▁god	-11.3181
enwe	-11.3181
▁Ukuze	-11.3181
▁outro	-11.3182
même	-11.3182
▁true	-11.3183
▁château	-11.3184
▁fadin	-11.3184
▁Arusha	-11.3185
▁cagta	-11.3186
▁ሚኒስትር	-11.3188
▁Victoria	-11.3189
▁tabia	-11.3191
ture	-11.3195
▁dalilin	-11.3196
▁job	-11.3198
kie	-11.3198
▁hira	-11.32
▁muuqata	-11.32
▁sauke	-11.3201
nel	-11.3201
▁center	-11.3203
hang	-11.3204
▁መር	-11.3204
▁tii	-11.3204
▁mpa	-11.3206
▁Kungiyar	-11.3206
▁kusho	-11.3207
▁weeks	-11.321
▁Wil	-11.3211
zer	-11.3212
RI	-11.3212
▁guddiga	-11.3216
▁army	-11.3217
▁network	-11.3219
▁saingy	-11.3219
▁naha	-11.322
▁dada	-11.3224
▁Emmanuel	-11.3224
▁daarna	-11.3226
ህን	-11.3228
▁kwaba	-11.3228
▁ኣይ	-11.3229
▁view	-11.323
▁foreign	-11.323
oro	-11.323
ታቸውን	-11.323
▁ለማድረግ	-11.3232
▁Barnaamijka	-11.3232
▁nakong	-11.3233
▁Many	-11.3236
▁significant	-11.3238
▁habeen	-11.3238
▁caadi	-11.3239
▁tsohle	-11.3239
cad	-11.324
▁qofku	-11.3243
▁rencontre	-11.3243
▁bolela	-11.3244
hlala	-11.3248
▁wey	-11.3248
eeyey	-11.3249
▁***	-11.325
▁miongoni	-11.3253
▁lula	-11.3254
▁Earth	-11.3256
▁Bre	-11.3259
▁fonction	-11.326
▁uJesu	-11.3261
▁Shirkadda	-11.3262
▁plans	-11.3264
▁ciyaarta	-11.3265
▁harin	-11.3266
bili	-11.3268
ghi	-11.3269
▁nm	-11.3269
▁Sol	-11.3271
American	-11.3273
▁teenoor	-11.3273
tle	-11.3274
▁nili	-11.3274
ም፣	-11.3275
▁response	-11.3279
tuu	-11.328
▁agha	-11.328
ging	-11.3282
▁types	-11.3283
ተኛ	-11.3284
▁socdo	-11.3285
mina	-11.3287
▁seul	-11.3287
▁tseo	-11.3288
▁tans	-11.3292
khulu	-11.3294
▁ግንኙነት	-11.3294
hou	-11.3295
▁ነገሮች	-11.3298
py	-11.3299
pas	-11.3304
▁Sch	-11.3304
form	-11.3305
▁habitants	-11.3308
▁joog	-11.3309
▁pali	-11.3312
▁science	-11.3312
▁ireto	-11.3313
▁xanuun	-11.3315
▁WADDANI	-11.3319
mma	-11.3319
fara	-11.3319
kisa	-11.332
▁wuli	-11.3322
ref	-11.3326
▁verwag	-11.3327
▁mada	-11.3327
ihe	-11.3328
▁Obi	-11.3328
ware	-11.333
▁Dhanka	-11.3332
▁below	-11.3333
▁lá	-11.3334
▁somali	-11.3334
▁tandis	-11.3335
▁kubo	-11.3335
ax	-11.3335
▁ipa	-11.3335
▁malagasy	-11.3336
lyn	-11.3336
▁global	-11.3338
▁bwo	-11.3339
▁nwoke	-11.3339
▁Municipality	-11.3342
anu	-11.3342
skap	-11.3346
▁darro	-11.3346
▁Labada	-11.3349
▁ardhi	-11.3349
▁Alexander	-11.3351
▁dọ	-11.3352
▁awgeed	-11.3355
Ẹ	-11.3356
It	-11.3356
bọ	-11.3357
gay	-11.3357
▁ع	-11.336
▁او	-11.336
▁poor	-11.3361
▁Plaaslike	-11.3364
▁FIFA	-11.3364
album	-11.3364
ê	-11.3365
▁kuwaasoo	-11.3366
▁amsa	-11.3367
▁influence	-11.3367
▁bashi	-11.3368
▁wuxu	-11.337
▁pop	-11.337
▁Forum	-11.3371
▁soomaaliya	-11.3373
▁Under	-11.3374
▁sameyn	-11.3374
kwazi	-11.3374
▁eventually	-11.3376
▁Bou	-11.3378
sara	-11.3378
hii	-11.3379
▁Fort	-11.338
div	-11.338
▁xidhiidh	-11.3381
▁Cad	-11.3382
▁cela	-11.3382
ugu	-11.3383
▁bose	-11.3384
▁mudane	-11.3387
▁Janeiro	-11.3391
▁movement	-11.3391
▁wareegay	-11.3392
اء	-11.3394
▁waarop	-11.3395
▁star	-11.3395
amento	-11.3397
▁sources	-11.3398
▁mpi	-11.3401
▁Hand	-11.3401
▁itakuwa	-11.3402
▁qabaa	-11.3404
bone	-11.3405
▁Siku	-11.3406
▁ezinye	-11.3408
nos	-11.3409
▁endaweni	-11.3411
▁female	-11.3412
bela	-11.3413
▁Jacques	-11.3414
leni	-11.3414
▁strategie	-11.3414
rum	-11.3414
isay	-11.3415
▁Ibi	-11.3415
eynaa	-11.3418
▁rugby	-11.3418
▁price	-11.342
▁dambeeyey	-11.3422
mont	-11.3422
▁mkoani	-11.3424
BS	-11.3424
▁diyaaradaha	-11.3424
▁ሰብ	-11.3427
▁yaal	-11.3429
giye	-11.3429
▁staff	-11.343
saday	-11.3431
▁qaataan	-11.3432
▁punt	-11.3433
▁deal	-11.3435
▁cultural	-11.3436
▁virus	-11.3437
▁Hot	-11.3441
MP	-11.3442
▁believe	-11.3443
▁stuur	-11.3443
▁extra	-11.3444
▁reached	-11.3445
▁wasiir	-11.3445
sika	-11.3446
▁Year	-11.3447
▁Security	-11.3448
▁ako	-11.3449
▁ofisi	-11.3449
▁unlimited	-11.345
▁zata	-11.3451
ቤት	-11.3454
▁finished	-11.3454
▁Shiinaha	-11.3455
▁kananan	-11.3456
▁ሓደ	-11.3457
▁college	-11.3457
▁ድ	-11.3458
▁gemeenskap	-11.3459
▁Mon	-11.346
▁afgelope	-11.346
▁jouself	-11.3463
▁wakhti	-11.3463
▁yasa	-11.3464
▁Kwe	-11.3464
▁mahali	-11.3465
▁processo	-11.3467
▁matsala	-11.3467
▁enigste	-11.3468
▁João	-11.3469
▁lief	-11.347
▁waqtiga	-11.347
▁langs	-11.3471
▁independent	-11.3472
▁ontwerp	-11.3474
bur	-11.3474
▁septembre	-11.3474
▁bevat	-11.3474
Gu	-11.3475
iwa	-11.3476
▁Series	-11.3476
▁warbixin	-11.3478
▁recherche	-11.3479
▁sols	-11.3479
▁Mbunge	-11.3481
▁mate	-11.3482
kunda	-11.3482
▁galaan	-11.3483
▁fitaovana	-11.3484
›	-11.3484
town	-11.3485
▁Akwai	-11.3485
▁بو	-11.3486
▁waba	-11.3486
▁kuni	-11.3489
▁tsaye	-11.3489
▁Tuesday	-11.3492
▁Bet	-11.3494
▁ml	-11.3494
▁Bus	-11.3495
igi	-11.3495
▁rata	-11.3496
▁writing	-11.3496
▁dr	-11.3496
▁mefuta	-11.3497
▁oko	-11.3497
▁yẹn	-11.3498
▁arag	-11.3499
ches	-11.3501
ov	-11.3502
abu	-11.3502
▁gago	-11.3502
▁ṣiṣẹ	-11.3503
baba	-11.3504
kati	-11.3505
▁Zamfara	-11.3507
▁seguinte	-11.3507
▁environ	-11.3509
▁አባ	-11.3509
▁Uit	-11.3509
▁results	-11.351
bada	-11.351
▁Mafi	-11.3512
▁UCID	-11.3512
▁janvier	-11.3514
▁seulement	-11.3515
▁olie	-11.3516
▁reading	-11.3518
▁lehilahy	-11.3521
ole	-11.3522
▁Yadda	-11.3523
▁ጠ	-11.3524
▁enkulu	-11.3524
▁ዘሎ	-11.3525
ntu	-11.3526
▁melhor	-11.3526
hara	-11.3527
▁kituo	-11.3528
eu	-11.353
▁Xi	-11.3532
▁babo	-11.3534
▁xogta	-11.3535
goo	-11.3536
▁Stadium	-11.3538
▁kwabo	-11.3538
tora	-11.3541
▁lado	-11.3541
▁የነበረው	-11.3542
▁manje	-11.3544
▁allowed	-11.3544
▁dumarka	-11.3545
▁différentes	-11.3546
ሹ	-11.3547
vol	-11.3548
iny	-11.3548
nam	-11.3549
▁travaux	-11.355
ota	-11.3552
▁ይልቅ	-11.3553
cm	-11.3553
▁inji	-11.3553
▁regular	-11.3555
▁kumele	-11.3556
▁qorshe	-11.3557
▁Ngoku	-11.356
▁መሰረት	-11.3561
▁Cash	-11.3562
pdf	-11.3562
hwa	-11.3562
tenga	-11.3563
▁Thursday	-11.3564
▁UM	-11.3566
▁jade	-11.3567
▁mako	-11.3568
▁todo	-11.3569
kubali	-11.3569
▁boeke	-11.357
yamba	-11.3572
▁lakho	-11.3574
▁act	-11.3574
see	-11.3574
▁Our	-11.3575
▁rufe	-11.3575
▁👁️	-11.3576
ping	-11.3577
▁Rights	-11.3577
▁lakhe	-11.3579
▁aduunka	-11.358
▁huidige	-11.3581
▁rayuwar	-11.3584
▁አይነት	-11.3585
iz	-11.3585
ls	-11.3585
▁soort	-11.3586
▁karibuni	-11.3588
▁xiray	-11.3588
▁Yanga	-11.3588
▁anaweza	-11.3589
▁jaridar	-11.3592
bhu	-11.3594
▁turn	-11.3595
▁Slot	-11.3597
▁usi	-11.3598
▁ሕይወት	-11.3598
▁cabsi	-11.3598
law	-11.3598
▁simba	-11.36
▁efforts	-11.3603
▁SI	-11.3603
▁Deposit	-11.3603
▁‹	-11.3603
post	-11.3604
▁Express	-11.3604
▁joogaan	-11.3604
▁Tompo	-11.3605
▁lys	-11.3606
▁mongwe	-11.3608
▁stadium	-11.3609
▁tago	-11.3612
▁TA	-11.3613
ْ	-11.3614
▁dire	-11.3615
toka	-11.3615
▁tel	-11.3616
ashada	-11.3621
▁كل	-11.3621
ensemble	-11.3621
▁études	-11.3622
tis	-11.3622
lic	-11.3623
▁Johannes	-11.3623
▁hanyoyin	-11.3624
sti	-11.3626
▁anu	-11.3628
▁Camp	-11.3633
▁huru	-11.3633
▁heshiiska	-11.3635
AM	-11.3635
agu	-11.3635
▁visit	-11.3636
▁tra	-11.3637
ሠ	-11.3638
▁ngisho	-11.3639
▁polisie	-11.3639
▁metsi	-11.3639
▁offer	-11.3641
▁ነቲ	-11.3641
▁originally	-11.3643
ssa	-11.3644
и	-11.3644
▁hulp	-11.3647
alo	-11.3647
▁nzira	-11.3647
nsi	-11.3647
ንስ	-11.3649
▁ለውጥ	-11.3651
▁rahisi	-11.3651
key	-11.3654
swe	-11.3654
email	-11.3654
▁suivante	-11.3655
▁xeer	-11.3658
▁acid	-11.3659
▁inge	-11.3661
▁parmi	-11.3661
▁ሊያ	-11.3661
▁várias	-11.3661
________________	-11.3662
▁fiara	-11.3662
ders	-11.3663
▁Code	-11.3663
▁uba	-11.3665
▁maelezo	-11.3666
loos	-11.3666
▁Soviet	-11.3666
▁noem	-11.3667
š	-11.3668
weyn	-11.3669
maal	-11.3669
bia	-11.367
▁ayaanu	-11.3671
▁required	-11.3675
▁lande	-11.3675
▁yakin	-11.3675
▁atọ	-11.3679
▁ragga	-11.3679
▁ኮ	-11.3679
▁Depuis	-11.368
cus	-11.368
▁Ebe	-11.3682
▁Get	-11.3683
▁Kon	-11.3683
▁haysta	-11.3685
hina	-11.3686
▁mawu	-11.3688
▁kasi	-11.3688
▁ụwa	-11.3689
pel	-11.369
▁kulo	-11.369
▁alama	-11.3692
▁Jong	-11.3693
▁ሙ	-11.3694
▁xiriira	-11.3695
▁ọpọlọpọ	-11.3695
т	-11.3696
▁gaadiidka	-11.3699
▁badnaa	-11.3701
▁njengo	-11.3703
▁cases	-11.3704
▁écrit	-11.3705
▁ሊሆን	-11.3705
ፒ	-11.3707
▁sameeyeen	-11.3711
▁Indien	-11.3713
NG	-11.3714
▁alliance	-11.3715
▁gevoel	-11.3716
▁qorshaha	-11.3716
▁icyo	-11.3717
gana	-11.3717
▁lower	-11.3718
▁Generator	-11.3719
▁tuka	-11.3719
▁moderne	-11.372
ub	-11.3725
▁Coast	-11.3727
▁shaqeyn	-11.3728
▁kullum	-11.373
ingia	-11.373
abord	-11.3732
▁verhoog	-11.3732
ordre	-11.3733
▁janeiro	-11.3737
tam	-11.3738
▁momwe	-11.374
▁thata	-11.374
መው	-11.3742
▁munsi	-11.3743
▁jalo	-11.3745
▁Ken	-11.3745
▁enga	-11.3745
▁unit	-11.3745
▁arm	-11.3745
▁Imam	-11.3746
▁Over	-11.3748
▁bẹrẹ	-11.3749
▁Data	-11.3749
▁ambavyo	-11.375
▁እምነት	-11.3752
Is	-11.3755
▁particulier	-11.3755
get	-11.3756
▁Coronavirus	-11.3757
▁waxaanay	-11.3758
▁agbegbe	-11.3762
fata	-11.3762
▁mafunzo	-11.3763
▁Ofisi	-11.3764
▁bon	-11.3764
inge	-11.3765
ምን	-11.3766
▁ሕግ	-11.3767
▁kokuba	-11.3771
▁hadin	-11.3771
▁Mashariki	-11.3771
▁Kristy	-11.3772
▁Mimi	-11.3774
ፈር	-11.3774
nyu	-11.3776
▁gyara	-11.3777
▁guri	-11.3778
▁Management	-11.3778
▁í	-11.3778
▁runtii	-11.378
▁Anne	-11.3782
dire	-11.3783
▁wam	-11.3784
▁wind	-11.3785
ሰው	-11.3786
▁የሚለው	-11.3786
▁terms	-11.3786
▁Eli	-11.3786
▁ugonjwa	-11.379
yda	-11.379
adka	-11.379
▁Ukuba	-11.3791
▁Greek	-11.3791
ጺ	-11.3792
uul	-11.3793
▁vat	-11.3793
but	-11.3794
▁zviri	-11.3795
▁elections	-11.3797
▁Now	-11.3797
koodu	-11.3798
▁Cependant	-11.3799
▁Londres	-11.3799
▁Mambo	-11.38
▁Baydhabo	-11.3805
▁jiru	-11.3809
!"	-11.381
tí	-11.3813
▁kuja	-11.3813
▁mota	-11.3813
▁Marc	-11.3813
▁takara	-11.3821
▁Ronaldo	-11.3825
hede	-11.3825
▁enough	-11.3827
mari	-11.3828
▁ngama	-11.3828
▁Kamati	-11.3829
▁ስን	-11.3829
▁ፍርድ	-11.383
▁መግለጫ	-11.383
win	-11.3831
▁mafy	-11.3831
mann	-11.3834
▁hatari	-11.3834
لى	-11.3835
▁mdogo	-11.3838
kela	-11.3841
▁Dal	-11.3842
▁hesho	-11.3842
▁xisbi	-11.3845
▁ukuya	-11.3847
▁différents	-11.3848
lf	-11.3848
▁Gaadiidka	-11.3849
▁Avec	-11.3849
▁ፈ	-11.3851
▁telo	-11.3851
▁waddanka	-11.3852
▁militaire	-11.3852
▁sababtoo	-11.3852
ö	-11.3853
▁março	-11.3855
▁vry	-11.3856
▁raka	-11.3858
▁segunda	-11.3859
▁wuta	-11.386
▁Minnesota	-11.3861
▁mumwe	-11.3862
tun	-11.3862
▁slaap	-11.3863
ል፡፡	-11.3864
▁Ontmoeting	-11.3865
▁situé	-11.3865
▁werklik	-11.3866
ü	-11.3866
▁friend	-11.3866
▁successful	-11.3866
▁tri	-11.3867
▁commence	-11.3867
▁jamais	-11.3868
▁zimenezi	-11.3868
laahi	-11.3871
▁voort	-11.3873
ጹ	-11.3873
▁link	-11.3873
▁sanad	-11.3874
ans	-11.3874
▁Aidha	-11.3875
▁gwa	-11.3877
▁jirka	-11.3878
▁Cover	-11.3881
rina	-11.3881
▁kinacho	-11.3881
▁hadalkiisa	-11.3882
▁something	-11.3884
▁rọ	-11.3884
imo	-11.3886
▁خ	-11.3887
▁lashe	-11.3888
▁Jaamacadda	-11.3889
▁keessa	-11.3889
▁እዚህ	-11.3891
▁pada	-11.3892
▁Jim	-11.3893
▁vamwe	-11.3894
▁Tuna	-11.3894
▁Tume	-11.3894
waxaana	-11.3895
▁François	-11.3897
▁dankie	-11.3897
▁Adamu	-11.3898
▁thusa	-11.3898
ሑ	-11.39
▁petit	-11.3901
ç	-11.3903
▁toegang	-11.3905
loop	-11.3906
▁akọkọ	-11.3907
▁aflaai	-11.3907
tsu	-11.3908
room	-11.391
▁juillet	-11.3911
▁owa	-11.3914
hanga	-11.3914
▁setembro	-11.3918
ova	-11.3919
▁́	-11.3919
▁Visits	-11.392
Ndi	-11.3921
▁Moses	-11.3921
▁couple	-11.3921
▁fal	-11.3922
aho	-11.3922
ici	-11.3922
▁CO	-11.3924
▁awarded	-11.3925
▁siyaasad	-11.3928
▁directed	-11.3929
▁ጎ	-11.3929
over	-11.3929
▁energy	-11.393
ço	-11.3931
▁uuna	-11.3933
▁fort	-11.3934
▁whole	-11.3934
▁moka	-11.3934
▁dastuurka	-11.3936
tid	-11.3938
▁lahatsoratra	-11.3938
▁cur	-11.3939
▁Sanaag	-11.3939
▁Band	-11.394
wala	-11.3941
▁sonde	-11.3941
ማን	-11.3943
▁Sexy	-11.3943
▁fifidianana	-11.3944
▁introduced	-11.3944
%)	-11.3945
▁khilaaf	-11.3945
tima	-11.3946
▁itself	-11.3946
hani	-11.3946
▁mzuri	-11.3948
ating	-11.3949
▁Roulette	-11.395
▁esel	-11.3952
maak	-11.3953
▁waxuu	-11.3953
tri	-11.3954
▁yeyote	-11.3955
▁hetsika	-11.3958
;+	-11.3959
▁arki	-11.3959
▁kere	-11.3961
▁Wana	-11.3961
▁ship	-11.3961
▁regional	-11.3963
▁ያላቸው	-11.3964
khi	-11.3964
▁produção	-11.3967
▁board	-11.3967
▁meio	-11.3968
tiese	-11.3968
▁traditional	-11.397
▁gala	-11.3971
▁dauka	-11.3972
▁waarom	-11.3972
▁Ara	-11.3972
NO	-11.3973
siri	-11.3974
▁attended	-11.3974
leng	-11.3975
▁teraka	-11.3976
▁outubro	-11.3977
▁Islam	-11.3978
▁wẹ	-11.3979
▁rino	-11.3979
▁sulke	-11.3982
ações	-11.3983
▁Wasaare	-11.3985
▁kasuwanci	-11.3985
▁nyere	-11.3985
▁jiya	-11.3986
kel	-11.3987
▁UAE	-11.3992
oli	-11.3993
sado	-11.3994
université	-11.3995
▁Benjamin	-11.3995
▁qaybta	-11.3996
nal	-11.3996
▁manta	-11.4001
▁badani	-11.4001
▁gevind	-11.4002
▁አት	-11.4005
▁tsoa	-11.4006
▁beweeg	-11.4006
▁xoolaha	-11.4007
▁xaalad	-11.4008
▁አያ	-11.4008
île	-11.401
tere	-11.401
Lu	-11.4011
▁começou	-11.4013
▁sol	-11.4013
NET	-11.4015
▁yale	-11.4016
▁Victor	-11.4016
ume	-11.4016
ayin	-11.4017
aatsoekwebwerf	-11.4017
▁create	-11.4017
▁vifaa	-11.4018
▁makarantar	-11.4019
▁décembre	-11.4019
▁pin	-11.4025
▁shirkadaha	-11.4028
▁verduidelik	-11.403
Daawo	-11.403
▁draai	-11.403
▁eye	-11.4031
▁thus	-11.4032
▁እውን	-11.4034
reg	-11.4034
ذ	-11.4037
▁Sama	-11.4039
wali	-11.404
▁እንዲያ	-11.4042
▁juis	-11.4042
jẹ	-11.4042
▁zauna	-11.4043
vuga	-11.4046
▁bure	-11.4047
▁organization	-11.405
CO	-11.405
▁Saboda	-11.4051
▁Min	-11.4051
uni	-11.4052
eysan	-11.4056
▁forte	-11.4056
leta	-11.4057
taal	-11.4059
panda	-11.4061
body	-11.4063
▁tartanka	-11.4065
▁oomblik	-11.4065
▁kacay	-11.4067
bert	-11.4069
Waxa	-11.4071
nika	-11.4073
▁singa	-11.4075
▁naira	-11.4075
▁Vol	-11.4075
▁ነው፤	-11.4076
▁primary	-11.4076
▁Queen	-11.4076
ase	-11.4077
pur	-11.4077
▁aandag	-11.4077
nitranga	-11.4079
▁violence	-11.408
fuata	-11.408
▁companies	-11.408
sela	-11.4081
▁fokus	-11.4085
▁haboon	-11.4086
▁lọwọ	-11.4088
▁}	-11.4088
pele	-11.409
▁abana	-11.4093
▁Wasaarada	-11.4094
▁fil	-11.4094
▁habboon	-11.4096
bwe	-11.4097
dio	-11.4097
▁itti	-11.4099
▁Jr	-11.4099
▁ọdún	-11.4099
oka	-11.41
nani	-11.4101
vers	-11.4104
ታችን	-11.4104
▁hof	-11.4104
▁dezembro	-11.4108
LA	-11.4108
▁soon	-11.411
▁mapenzi	-11.411
▁ግ	-11.4111
tch	-11.4115
▁hadlaya	-11.4117
RC	-11.4118
▁هو	-11.4121
▁justice	-11.4124
▁waayey	-11.4124
deeda	-11.4125
▁fiainana	-11.4126
▁tarde	-11.4127
▁content	-11.4128
▁zareo	-11.4128
bul	-11.413
▁pụrụ	-11.4131
▁Stephen	-11.4137
ዘን	-11.4138
▁alleen	-11.414
yaga	-11.4141
▁kuze	-11.4142
▁manan	-11.4142
▁Ak	-11.4143
▁lewer	-11.4143
▁Izany	-11.4145
▁waarvan	-11.4146
▁ivyo	-11.4147
▁friends	-11.4147
▁novembre	-11.4151
▁tukio	-11.4152
▁mafanikio	-11.4152
▁Nigerian	-11.4153
▁Tel	-11.4154
▁élections	-11.4155
liga	-11.4156
▁ch	-11.4157
too	-11.4161
▁KMG	-11.4164
▁norte	-11.4165
▁List	-11.4165
▁ụgwọ	-11.4168
▁vlak	-11.4168
▁dil	-11.4169
hlobo	-11.4171
▁kilicho	-11.4171
▁gazety	-11.4175
▁Binêre	-11.4176
oto	-11.4176
▁yaani	-11.4179
▁activities	-11.418
pọ	-11.4184
▁ekonomiese	-11.4185
▁Nuus	-11.4186
▁evidence	-11.4187
nywa	-11.4188
أ	-11.4189
▁kunga	-11.4189
▁baadaye	-11.4191
▁octobre	-11.4192
▁እንቅስቃሴ	-11.4192
▁manière	-11.4192
▁nsogbu	-11.4193
lah	-11.4195
▁verantwoordelik	-11.4196
eeda	-11.4196
▁artist	-11.4197
▁ሰዓት	-11.4198
diens	-11.4198
cs	-11.4199
▁Book	-11.4199
▁opposition	-11.42
▁kuwaasi	-11.4201
▁quality	-11.4202
▁toets	-11.4202
▁qalab	-11.4202
▁waanu	-11.4203
dada	-11.4204
▁Djibouti	-11.4205
sala	-11.4208
tenda	-11.4208
▁vorige	-11.421
▁tsare	-11.421
▁degan	-11.421
▁meji	-11.4212
...”	-11.4213
▁phambili	-11.4213
▁tompon	-11.4214
▁salama	-11.4214
ሾ	-11.4215
iers	-11.4215
▁Warbaahinta	-11.4215
zara	-11.4215
▁muitos	-11.4216
▁kusuka	-11.4218
▁addini	-11.4219
▁books	-11.4219
ከር	-11.422
▁Pussy	-11.422
▁higher	-11.422
▁drama	-11.422
ụlọ	-11.4221
▁Xaashi	-11.4222
▁wide	-11.4222
▁beskryf	-11.4222
▁muuqda	-11.4224
▁zom	-11.4225
ያን	-11.4226
▁gevra	-11.4228
▁abokan	-11.4229
▁furent	-11.423
shiya	-11.4231
ros	-11.4232
▁shirye	-11.4233
▁igama	-11.4236
HOL	-11.4236
Za	-11.4237
▁nezi	-11.4237
rai	-11.4238
saka	-11.424
▁iku	-11.4241
aw	-11.4241
pm	-11.4243
▁kauli	-11.4244
▁Chief	-11.4244
▁About	-11.4245
▁movie	-11.4247
▁joogta	-11.4247
▁participe	-11.4251
▁increase	-11.4254
▁mustaqbalka	-11.4255
▁aannu	-11.4255
▁abun	-11.4257
▁financial	-11.4258
▁Services	-11.426
▁Bon	-11.4261
▁julho	-11.4261
▁Turai	-11.4263
▁trop	-11.4263
▁afa	-11.4264
vuta	-11.4264
▁bii	-11.4265
polo	-11.4265
▁Watch	-11.4267
▁matar	-11.4268
▁winter	-11.427
▁bord	-11.4271
cos	-11.4271
▁mono	-11.4271
lite	-11.4271
njo	-11.4271
▁gobollada	-11.4274
▁girl	-11.4274
rey	-11.4275
nke	-11.4276
▁feno	-11.4276
▁kanta	-11.4277
▁dha	-11.4277
▁yose	-11.428
‘	-11.4282
▁boma	-11.4282
▁በሌላ	-11.4284
▁bataille	-11.4286
▁Anthu	-11.4287
▁yaab	-11.4289
▁ouer	-11.429
▁ጸ	-11.429
▁linalo	-11.4291
▁heart	-11.4292
▁Kal	-11.4294
▁ይችላሉ	-11.4295
ሽን	-11.4297
▁biri	-11.4297
▁bayanan	-11.4298
▁zika	-11.4299
sele	-11.43
▁ውጤት	-11.43
▁duur	-11.4301
ooyin	-11.4302
▁laarin	-11.4304
▁Mwenyezi	-11.4304
▁ድጋፍ	-11.4304
▁naanị	-11.4305
▁تعداد	-11.4308
▁problems	-11.4308
▁Source	-11.4308
▁Navy	-11.4309
box	-11.4309
amba	-11.4312
▁américain	-11.4312
▁sanno	-11.4312
▁shafukanmu	-11.4312
liya	-11.4314
rou	-11.4314
▁ጉዳዮች	-11.4315
ጩ	-11.4315
▁menos	-11.4316
rika	-11.4319
gaba	-11.432
ski	-11.4321
bana	-11.4322
mati	-11.4323
▁replaced	-11.4323
▁caawa	-11.4324
▁property	-11.4324
▁waandishi	-11.4325
▁Bra	-11.4326
▁sauransu	-11.4328
▁Katiba	-11.4328
▁Date	-11.433
▁taasisi	-11.4334
▁handelaar	-11.4337
▁powder	-11.4337
▁Cross	-11.4338
▁beginning	-11.4339
bahoaka	-11.4339
▁cor	-11.4339
▁Jacob	-11.4339
▁society	-11.4341
▁guur	-11.4341
didi	-11.4344
▁Northern	-11.4346
▁Rehefa	-11.4349
▁awu	-11.4353
▁hoekom	-11.4353
▁Want	-11.4354
▁themselves	-11.4355
sol	-11.4356
▁genre	-11.4358
▁አስተዳደር	-11.4358
rara	-11.4359
▁gehoor	-11.4359
▁earlier	-11.436
▁webcam	-11.436
▁format	-11.4361
▁mur	-11.4361
▁hagati	-11.4366
▁competition	-11.4367
كس	-11.4368
ውም	-11.4368
▁قريه	-11.4372
▁Shafin	-11.4372
rcid	-11.4373
▁cover	-11.4374
gere	-11.4375
nti	-11.4377
▁ar	-11.4377
dit	-11.4378
▁ilaahay	-11.438
▁Today	-11.4382
▁wanu	-11.4383
▁saari	-11.4383
▁ቀደም	-11.4384
▁Wikipedia	-11.4389
▁iliyopita	-11.4389
▁mw	-11.4389
▁addu	-11.439
était	-11.4393
▁fatan	-11.4396
▁weeye	-11.4397
stan	-11.4398
▁Kristo	-11.4399
י	-11.4399
▁traffic	-11.4402
▁የዓለም	-11.4403
▁besigheid	-11.4407
▁Àwọn	-11.4407
▁nokuti	-11.4408
▁xataa	-11.4408
▁milieu	-11.4408
▁robot	-11.441
▁vy	-11.4412
gmail	-11.4413
sina	-11.4413
▁caasimadda	-11.4414
▁search	-11.4415
▁asof	-11.4415
▁qaadeen	-11.4416
▁related	-11.4416
▁Shirika	-11.4416
▁agosto	-11.4417
▁Ander	-11.4417
▁haut	-11.4418
▁bio	-11.4418
pia	-11.4419
▁NAIJ	-11.4422
sar	-11.4422
▁university	-11.4423
Ver	-11.4424
park	-11.4426
▁Zu	-11.4427
▁Florida	-11.4428
▁Enkellopende	-11.4429
olona	-11.4431
▁Cabdilaahi	-11.4432
wtlocale	-11.4434
▁fourth	-11.4434
▁operations	-11.4434
▁hakika	-11.4435
rk	-11.4435
▁ውሳኔ	-11.4435
▁paku	-11.4436
▁Job	-11.4437
▁wanaag	-11.4439
▁inaga	-11.4439
▁መልካም	-11.444
tuko	-11.444
cc	-11.4442
▁ሚ	-11.4443
kele	-11.4444
▁Abantu	-11.4444
▁Afsprake	-11.4444
▁Inona	-11.4445
▁Tena	-11.4446
▁Ceel	-11.4446
▁Nelson	-11.4447
▁réseau	-11.4447
▁WhatsApp	-11.4448
▁boqol	-11.4449
▁zakho	-11.4449
▁buitelandse	-11.445
▁whom	-11.445
▁lezi	-11.4452
▁recent	-11.4453
▁Ade	-11.4454
▁nasiib	-11.4454
ሉን	-11.4458
▁reeks	-11.4458
ụzọ	-11.4459
tumia	-11.446
▁chaka	-11.446
▁dir	-11.446
ሥ	-11.4461
▁pai	-11.4463
▁Mor	-11.4464
sson	-11.4465
Kaap	-11.4465
light	-11.4465
▁አደጋ	-11.4466
▁caasimada	-11.4467
▁neno	-11.4467
▁seja	-11.4467
▁መልኩ	-11.4467
▁changed	-11.4468
▁effect	-11.4469
???	-11.447
▁horeysay	-11.4473
Ne	-11.4474
▁ፖለቲካ	-11.4475
▁produit	-11.4476
▁qab	-11.4476
Du	-11.4476
▁ስር	-11.4477
▁drink	-11.4477
ball	-11.4477
▁sedert	-11.4478
▁xildhibaan	-11.4478
▁fall	-11.4479
▁NAB	-11.448
▁SC	-11.4484
▁previously	-11.4484
▁haeba	-11.4485
ntes	-11.4485
dalàna	-11.4486
▁inkastoo	-11.4487
▁voer	-11.4488
▁Arimaha	-11.4489
▁bit	-11.4491
▁caso	-11.4491
▁hona	-11.4493
▁magaalooyinka	-11.4494
▁rabo	-11.4494
▁bill	-11.4495
▁surtout	-11.4495
▁Second	-11.4496
Car	-11.4496
ባል	-11.4497
▁Mwaka	-11.45
▁mke	-11.4501
▁Warar	-11.4502
▁Dié	-11.4502
stone	-11.4502
▁abril	-11.4504
wal	-11.4505
staan	-11.4506
▁maan	-11.451
sion	-11.451
▁duka	-11.4511
hali	-11.4511
▁medical	-11.4512
▁condition	-11.4512
▁Voor	-11.4513
▁Una	-11.4513
▁Engels	-11.4514
▁baad	-11.4514
▁ervaring	-11.4516
▁Harry	-11.4518
▁xukuumada	-11.4519
▁pragtige	-11.4519
▁spring	-11.4519
limi	-11.452
▁Mp	-11.4521
▁DE	-11.4523
▁በማድረግ	-11.4523
▁الفنيه	-11.4525
▁phahameng	-11.4525
Te	-11.4525
▁bja	-11.4526
▁Aad	-11.4527
▁Este	-11.4527
▁shacab	-11.4533
El	-11.4533
bula	-11.4534
ston	-11.4534
▁ሕ	-11.4536
▁systems	-11.4539
▁positive	-11.454
été	-11.454
ዞ	-11.4541
ach	-11.4544
▁placed	-11.4544
▁dead	-11.4547
▁mamlaka	-11.4548
▁shigar	-11.4551
▁አሉ	-11.4552
▁الا	-11.4554
ero	-11.4555
▁studente	-11.4556
fun	-11.4558
▁Tuntube	-11.4559
mpe	-11.4559
▁wadan	-11.4561
▁ọja	-11.4561
▁ለሚ	-11.4562
▁Sheegay	-11.4564
▁Haeba	-11.4564
bhi	-11.4564
▁Virginia	-11.4565
▁Siyaad	-11.4565
koodii	-11.4566
▁meelo	-11.4566
▁resaka	-11.4567
lane	-11.4567
▁Aflaai	-11.4568
Somaliland	-11.4568
▁husband	-11.457
▁Im	-11.4571
▁conta	-11.4571
▁Boston	-11.4571
ery	-11.4572
▁waarheid	-11.4575
▁Empire	-11.4576
jir	-11.4576
▁Wood	-11.4577
ናል	-11.4578
▁Imana	-11.458
▁mfe	-11.458
▁André	-11.4581
▁exemplo	-11.4582
▁relationship	-11.4583
▁junho	-11.4583
med	-11.4584
▁Sheria	-11.4587
▁aircraft	-11.4588
▁Uga	-11.4588
▁directeur	-11.4588
▁ከፍ	-11.4589
▁algemene	-11.459
▁nyika	-11.459
▁yenu	-11.459
▁cependant	-11.4591
▁mac	-11.4591
▁shot	-11.4591
▁manaraka	-11.4591
▁eux	-11.4592
▁Boosaaso	-11.4594
▁isaanii	-11.4594
eux	-11.4596
▁Iyadoo	-11.4596
▁Doorashooyinka	-11.4598
ጓ	-11.4599
▁dhaaf	-11.46
YO	-11.4601
▁novembro	-11.4602
▁inga	-11.4602
▁Aqalka	-11.4603
▁ndogo	-11.4603
▁Shiikh	-11.4604
ming	-11.4605
▁jiraa	-11.4606
Cha	-11.4608
top	-11.4611
▁bonolo	-11.4612
▁failed	-11.4612
▁View	-11.4613
▁adeeg	-11.4615
▁ናቸው፡፡	-11.4615
hala	-11.4616
ranga	-11.4617
▁ohere	-11.4617
▁rwego	-11.4618
▁siya	-11.4618
▁derde	-11.4619
▁Mari	-11.4619
yen	-11.462
▁taimakawa	-11.462
▁bikin	-11.4621
▁tal	-11.4621
▁conseil	-11.4621
▁keuse	-11.4624
lweni	-11.4626
▁uM	-11.4628
▁الأ	-11.4628
ε	-11.4631
kal	-11.4631
▁maalum	-11.4633
TI	-11.4634
▁OF	-11.4634
ክስ	-11.4634
▁الع	-11.4634
▁volta	-11.4635
▁asked	-11.4636
▁leenahay	-11.4637
▁kilimo	-11.4638
▁Chip	-11.4638
▁ufuna	-11.4641
cent	-11.4641
▁sojojin	-11.4641
▁Prime	-11.4642
▁plekke	-11.4642
▁Major	-11.4643
▁akukho	-11.4643
shiriki	-11.4644
pé	-11.4644
▁Kheyre	-11.4644
dam	-11.4644
voor	-11.4645
▁ilivyo	-11.4645
▁miradi	-11.4645
▁አድርጎ	-11.4645
▁android	-11.4645
now	-11.4646
▁serve	-11.4647
gate	-11.4648
▁février	-11.4649
ወጣ	-11.465
▁Como	-11.4651
▁FREE	-11.4651
▁bron	-11.4651
had	-11.4651
▁Sky	-11.4652
bed	-11.4652
▁wadaan	-11.4655
▁Song	-11.4655
▁muma	-11.4657
▁poder	-11.4658
▁Argentina	-11.4658
▁Cal	-11.466
▁Perezida	-11.466
▁pan	-11.4662
▁journal	-11.4663
▁jumla	-11.4664
▁kupita	-11.4667
▁République	-11.4667
ሂ	-11.4667
▁empresa	-11.4669
▁nla	-11.4669
▁passou	-11.4669
▁rwe	-11.4672
haka	-11.4672
War	-11.4674
sal	-11.4674
Sha	-11.4676
▁kuwe	-11.4677
mel	-11.4677
▁Xukuumada	-11.4681
▁phone	-11.4681
▁gou	-11.4683
▁siège	-11.4683
▁Waxbarashada	-11.4684
▁navorsing	-11.4685
▁با	-11.4685
▁Dagaal	-11.4686
▁chiyani	-11.4687
▁kuishi	-11.4689
▁guddoomiyaha	-11.4691
gha	-11.4691
▁sayar	-11.4692
▁nyaya	-11.4692
▁Irish	-11.4694
▁Antonio	-11.4694
▁xaalada	-11.4695
nọ	-11.4696
▁gebied	-11.4697
kam	-11.4697
sasa	-11.4699
▁nilaza	-11.47
▁DP	-11.4701
▁بال	-11.4701
urs	-11.4701
leg	-11.4701
ities	-11.4702
▁zuru	-11.4702
▁ọsọ	-11.4704
blog	-11.4704
▁computer	-11.4705
▁EN	-11.4705
ors	-11.4706
▁degdeg	-11.4706
▁produkte	-11.4706
nzwa	-11.4708
COM	-11.4708
vir	-11.471
uli	-11.471
▁hawlaha	-11.4711
▁numa	-11.4714
▁tababar	-11.4714
meni	-11.4717
▁sebetsa	-11.4717
▁michezo	-11.4719
▁ntho	-11.472
▁shaqeeyaan	-11.4721
▁communauté	-11.4723
punt	-11.4724
▁በመሆኑ	-11.4727
▁namba	-11.4728
▁Corporation	-11.4729
▁macho	-11.4729
▁Nijeriya	-11.473
▁ubwo	-11.4732
▁window	-11.4735
eso	-11.4736
News	-11.4738
▁cut	-11.4738
▁Inay	-11.4738
ሉ።	-11.474
▁Justice	-11.474
▁southern	-11.4741
▁tuntube	-11.4743
ther	-11.4743
ien	-11.4743
▁ፓ	-11.4744
▁xidhan	-11.4744
▁rond	-11.4744
ngana	-11.4744
▁dix	-11.4745
▁bụ́	-11.4746
▁Afghanistan	-11.4746
▁ህዝቢ	-11.4747
▁wadada	-11.4747
aalo	-11.4748
▁Southern	-11.475
▁manome	-11.4752
▁Auto	-11.4752
aikata	-11.4754
▁Arabia	-11.4754
cheza	-11.4754
▁qoraalka	-11.4755
ቋ	-11.4758
▁Qu	-11.4759
▁soko	-11.4759
▁kasancewar	-11.4759
▁Jama	-11.476
▁Image	-11.4761
▁ብም	-11.4762
▁Dawlada	-11.4762
▁fadi	-11.4764
▁BO	-11.4765
▁Madaxweynuhu	-11.4766
▁Tattoo	-11.4766
▁shaki	-11.4767
▁sawir	-11.4767
▁daawo	-11.4767
▁geystay	-11.4768
▁kumi	-11.4768
wada	-11.4769
▁longo	-11.4769
▁ikpe	-11.4769
▁mos	-11.477
ial	-11.477
inter	-11.4773
▁ምክንያቱም	-11.4773
▁caadiga	-11.4775
▁aurait	-11.4775
▁Jizọs	-11.4775
rudi	-11.4776
France	-11.4776
▁avril	-11.4777
dle	-11.4778
trano	-11.4778
rre	-11.4779
▁Klets	-11.4779
▁Hai	-11.4782
▁ady	-11.4784
endelea	-11.4784
▁ن	-11.4784
▁border	-11.4784
▁Published	-11.4784
▁ndiponso	-11.4785
▁raia	-11.4785
▁Hargaysa	-11.4786
Ex	-11.4786
▁todas	-11.4787
▁Cap	-11.4788
▁ooit	-11.479
▁tuis	-11.479
▁rooi	-11.4793
▁Johannesburg	-11.4796
▁disso	-11.4796
▁governemanta	-11.4797
▁Following	-11.4798
▁ciidamo	-11.4798
▁technology	-11.4798
▁Zvino	-11.48
▁totale	-11.4801
▁produk	-11.4802
dana	-11.4803
eleza	-11.4804
▁amar	-11.4805
self	-11.4805
▁troops	-11.4805
▁vel	-11.4805
▁países	-11.4806
▁Ezi	-11.4806
▁Vroue	-11.4806
▁ሃገር	-11.4807
zulu	-11.4811
▁Michel	-11.4811
▁Turkish	-11.4813
▁northern	-11.4813
▁matan	-11.4813
Com	-11.4815
▁yayo	-11.4816
▁Wasiirada	-11.4816
▁antony	-11.4817
▁nag	-11.482
sis	-11.482
▁Bush	-11.4821
wani	-11.4821
▁Kila	-11.4822
▁phambi	-11.4823
▁ዲ	-11.4824
▁park	-11.4824
▁መጽሐፍ	-11.4824
▁ሰባት	-11.4827
▁gereeld	-11.4827
▁daarom	-11.4828
▁soomaali	-11.4831
▁Hou	-11.4831
▁weens	-11.4832
▁mandeha	-11.4832
ente	-11.4833
አን	-11.4833
▁rike	-11.4834
▁ግምገማዎች	-11.4837
▁nahazo	-11.4838
▁Pedro	-11.4839
iyaa	-11.4842
▁ሴ	-11.4842
▁command	-11.4844
▁kwako	-11.4845
▁demo	-11.4846
▁zinga	-11.4847
▁kupanga	-11.4847
▁spesifieke	-11.4847
AD	-11.4848
▁battle	-11.4848
▁አር	-11.4849
tira	-11.485
▁bamwe	-11.4852
▁amba	-11.4853
geen	-11.4853
▁Talata	-11.4854
▁Musulunci	-11.4854
▁algumas	-11.4854
▁travers	-11.4855
▁makala	-11.4856
elles	-11.4856
kai	-11.4857
ታል።	-11.4858
nku	-11.4858
▁Ụlọ	-11.4859
▁cast	-11.486
▁Ste	-11.4861
▁pris	-11.4863
▁Bauchi	-11.4863
▁mouvement	-11.4865
▁MB	-11.4867
▁conhecido	-11.4867
▁siyaasada	-11.4869
▁phase	-11.4871
▁safar	-11.4871
▁ያሉት	-11.4872
▁መልዕክት	-11.4872
iser	-11.4873
▁waxbarasho	-11.4875
stad	-11.4877
▁karatun	-11.4878
▁uiteindelik	-11.4878
ruka	-11.4878
▁ነፃ	-11.4879
▁donné	-11.488
▁practice	-11.488
▁Afya	-11.4882
▁Master	-11.4884
▁maio	-11.4885
ongo	-11.4885
▁Mtume	-11.4885
▁plupart	-11.4887
lani	-11.4888
▁alaye	-11.4888
▁Programme	-11.4889
kers	-11.489
▁Design	-11.489
▁faida	-11.489
▁equipe	-11.4892
▁wai	-11.4893
▁Jésù	-11.4895
rama	-11.4895
▁dik	-11.4897
▁Mapinduzi	-11.4898
▁fili	-11.4898
inka	-11.4898
▁Baiboly	-11.4899
awar	-11.4901
▁Zuma	-11.4902
▁running	-11.4902
▁Bíbélì	-11.4903
«	-11.4903
▁normal	-11.4904
shika	-11.4904
yang	-11.4907
▁celin	-11.4908
uud	-11.4911
▁ngokuba	-11.4912
▁mtandao	-11.4912
▁Mad	-11.4912
▁scène	-11.4912
▁uwanja	-11.4913
▁dienste	-11.4915
▁vokatra	-11.4915
▁Xirsi	-11.4917
▁hoog	-11.4917
▁nika	-11.4922
▁aheyn	-11.4922
▁aliyekuwa	-11.4923
▁Order	-11.4923
ces	-11.4923
▁guerra	-11.4925
▁ukusebenza	-11.4927
TB	-11.4927
▁scored	-11.4928
tshwa	-11.493
▁opera	-11.4932
خ	-11.4934
ndro	-11.4936
▁Gabriel	-11.4936
▁stay	-11.4936
▁équipe	-11.4937
▁verdien	-11.4938
▁nado	-11.4938
ዶች	-11.4939
▁kadan	-11.4939
▁ፍ	-11.4939
▁Omar	-11.494
▁Tur	-11.4941
▁longer	-11.4942
▁wasaaraha	-11.4943
size	-11.4947
▁mamaki	-11.4949
▁Woord	-11.495
▁HIV	-11.495
▁xidhiidha	-11.4951
▁Sii	-11.4951
▁noted	-11.4952
▁travel	-11.4952
▁Digital	-11.4953
▁som	-11.4953
bani	-11.4954
▁ndaka	-11.4955
mé	-11.4956
▁título	-11.4957
▁bene	-11.4958
ice	-11.4958
▁Sannan	-11.4958
bos	-11.4959
▁Ministan	-11.4959
▁mayelana	-11.4959
▁Vader	-11.496
ret	-11.496
\/	-11.496
ewe	-11.496
stelsel	-11.4963
▁Islands	-11.4964
▁coup	-11.4964
▁AD	-11.4966
▁nake	-11.4968
ዐ	-11.4968
gia	-11.497
▁اشتغل	-11.497
▁دى	-11.497
̱	-11.497
▁shaqayn	-11.4972
▁filho	-11.4974
▁Borno	-11.4974
zia	-11.4976
▁sowat	-11.4978
▁Train	-11.4978
▁billion	-11.4979
▁socdaan	-11.4982
▁complete	-11.4982
▁gesig	-11.4984
▁nzvimbo	-11.4984
PS	-11.4986
▁skakel	-11.4986
mmer	-11.4989
dun	-11.499
▁awoodda	-11.4991
doon	-11.4992
▁lé	-11.4992
▁nípa	-11.4994
▁Was	-11.4994
▁Costa	-11.4995
▁qor	-11.4995
▁município	-11.4996
▁manager	-11.4996
▁farxad	-11.4996
▁sept	-11.4997
▁Just	-11.4999
▁incluindo	-11.4999
▁bilioni	-11.5
ቭ	-11.5002
kov	-11.5002
▁launched	-11.5003
▁kake	-11.5003
info	-11.5003
▁walaal	-11.5003
▁አስፈላጊ	-11.5004
▁remporte	-11.5007
▁bani	-11.5009
mate	-11.501
▁Out	-11.5012
▁balan	-11.5014
▁ሸ	-11.5015
▁Lady	-11.5016
▁distance	-11.5019
▁difaaca	-11.502
ists	-11.5021
▁belasting	-11.5023
يا	-11.5023
▁musa	-11.5023
▁nikan	-11.5026
kra	-11.5029
MC	-11.5029
▁bophelo	-11.5029
▁questions	-11.5031
loo	-11.5031
▁ƙara	-11.5031
▁aragti	-11.5033
raxmaan	-11.5034
▁Will	-11.5037
▁lililo	-11.5039
▁kupiga	-11.5039
▁Golden	-11.504
▁taorian	-11.504
St	-11.5041
▁rimwe	-11.5042
▁Unlimited	-11.5043
▁Kai	-11.5044
▁value	-11.5044
ok	-11.5046
près	-11.5046
▁Diamond	-11.5046
ኬ	-11.5047
▁karolo	-11.5047
▁dollars	-11.5048
rị	-11.5049
▁Machi	-11.5049
▁victoire	-11.5051
▁Director	-11.5051
▁text	-11.5052
▁weight	-11.5054
▁dhaq	-11.5054
izi	-11.5054
▁col	-11.5054
▁letter	-11.5056
▁whether	-11.5056
▁beide	-11.5058
board	-11.5059
ob	-11.506
unda	-11.506
bro	-11.5061
▁Jordan	-11.5062
▁nasi	-11.5063
▁ŵaka	-11.5064
▁beskerm	-11.5064
▁ክርስቶስ	-11.5065
▁Qalabka	-11.5065
SO	-11.5066
▁osisi	-11.5066
▁location	-11.5066
aq	-11.5067
▁obere	-11.5068
▁oog	-11.5069
▁tube	-11.5069
н	-11.507
uro	-11.507
dee	-11.5071
▁mona	-11.5073
Po	-11.5073
▁chochote	-11.5074
▁Wilson	-11.5075
▁mankhwala	-11.5075
mus	-11.5077
eena	-11.5078
ο	-11.508
PC	-11.5081
▁idea	-11.5081
▁gebou	-11.5082
jana	-11.5082
▁idinku	-11.5082
▁Universidade	-11.5083
▁championnat	-11.5083
CC	-11.5085
▁Ford	-11.5085
▁zako	-11.5085
▁xoogan	-11.5085
▁geli	-11.5086
▁iyana	-11.5087
▁cidda	-11.5087
▁mmene	-11.5088
occupation	-11.5089
▁ended	-11.5089
▁wanaume	-11.5089
▁wuri	-11.5091
▁loatra	-11.5093
▁siday	-11.5093
eynta	-11.5095
▁ተጨማሪ	-11.5095
▁Nchi	-11.5096
▁wachezaji	-11.5097
▁lambar	-11.5098
▁ise	-11.5099
▁function	-11.51
▁resources	-11.51
dde	-11.5101
▁sucesso	-11.5101
lenga	-11.5102
▁nidaam	-11.5103
▁Daarom	-11.5105
UN	-11.5106
▁image	-11.5106
▁subject	-11.5107
ما	-11.5107
▁SNM	-11.5107
▁asili	-11.5109
▁ondersteun	-11.5109
▁increased	-11.5109
▁Toronto	-11.5111
▁Professor	-11.5112
▁shawarar	-11.5112
South	-11.5112
leh	-11.5115
▁Hindi	-11.5116
▁haa	-11.5119
▁internasionale	-11.5119
yama	-11.5121
▁qurux	-11.5121
▁fikir	-11.5123
▁Israeli	-11.5124
▁matukar	-11.5124
tattoo	-11.5124
▁አሳ	-11.5125
kwana	-11.5125
jaribu	-11.5125
aadka	-11.5125
▁wabo	-11.5128
usi	-11.5129
▁présence	-11.5131
""	-11.5131
enweghị	-11.5131
▁política	-11.5135
▁Parti	-11.5135
▁elkeen	-11.5135
▁crime	-11.5136
▁youth	-11.5137
▁festival	-11.5137
▁miezi	-11.5139
lot	-11.5139
rri	-11.5141
gooda	-11.5142
▁sometimes	-11.5142
hama	-11.5144
▁Yoruba	-11.5144
▁river	-11.5146
▁yọ	-11.5147
▁generator	-11.5147
▁inside	-11.5147
onekana	-11.5147
▁closed	-11.5149
kuta	-11.5149
ense	-11.5151
▁às	-11.5151
▁howl	-11.5152
AS	-11.5153
▁marasa	-11.5154
▁wafanyakazi	-11.5154
▁harkar	-11.5154
▁août	-11.5154
▁kupunguza	-11.5155
▁places	-11.5157
▁byo	-11.5158
TE	-11.5162
ct	-11.5163
▁Jamus	-11.5164
▁Esel	-11.5164
▁porque	-11.5165
kina	-11.5165
▁autour	-11.5165
▁የም	-11.5166
ong	-11.5168
ን።	-11.5168
▁كليه	-11.5168
▁cire	-11.5169
▁summer	-11.5169
▁claimed	-11.5169
▁commander	-11.5171
▁ሆነው	-11.5171
taba	-11.5172
▁chief	-11.5172
▁ይሆናል	-11.5173
▁doing	-11.5174
▁kampeni	-11.5176
▁zargi	-11.5176
▁sauya	-11.5176
pera	-11.5177
ancien	-11.5178
▁majority	-11.518
kka	-11.518
band	-11.518
▁humo	-11.5181
▁Juan	-11.5182
▁Coupe	-11.5183
ego	-11.5183
▁ida	-11.5183
▁Vind	-11.5185
▁products	-11.5187
▁units	-11.5188
▁ushindi	-11.5188
free	-11.5191
▁gone	-11.5192
▁kwakho	-11.5192
▁kwana	-11.5192
▁በተለያዩ	-11.5193
▁eenvoudig	-11.5194
▁yawo	-11.5194
▁acha	-11.5196
▁isimo	-11.5197
ላችሁ	-11.5198
▁Xildhibaanada	-11.5198
▁bewys	-11.5199
mane	-11.5199
dina	-11.52
ations	-11.5202
▁spent	-11.5203
▁tariki	-11.5204
▁ziara	-11.5205
▁ጥ	-11.5206
▁karere	-11.5206
longo	-11.5206
▁aqoonta	-11.5206
▁studie	-11.5208
▁vina	-11.521
▁zanga	-11.5211
▁dakika	-11.5211
deel	-11.5211
▁parfois	-11.5214
▁klabu	-11.5217
▁verby	-11.5219
▁tax	-11.5219
ID	-11.5219
▁Ababa	-11.522
▁muhimmanci	-11.522
ُ	-11.5221
ገባ	-11.5223
head	-11.5223
▁JamiiForums	-11.5223
▁soma	-11.5224
ور	-11.5224
pad	-11.5224
phila	-11.5225
▁usa	-11.5225
▁Muri	-11.5226
▁indhaha	-11.5227
eti	-11.5227
▁kugeza	-11.5228
▁filayaa	-11.5229
ቀው	-11.523
▁census	-11.523
▁Middle	-11.5231
▁imaan	-11.5232
▁passage	-11.5232
▁shilingi	-11.5232
▁qofkii	-11.5233
▁muli	-11.5234
▁xidhay	-11.5236
jaar	-11.5237
▁isticmaalo	-11.5238
▁allow	-11.5239
▁hanti	-11.524
▁degaanka	-11.5241
▁garkuwa	-11.5241
▁Esta	-11.5242
fahamu	-11.5242
▁Hali	-11.5244
▁Maendeleo	-11.5245
▁mala	-11.5246
▁helin	-11.5246
▁kutafuta	-11.5248
ሎም	-11.5248
kop	-11.5248
fanyika	-11.5249
▁Summer	-11.5251
▁liste	-11.5252
▁MI	-11.5253
▁JSL	-11.5253
▁Leave	-11.5254
taona	-11.5255
ጤ	-11.5255
▁ዳ	-11.5256
mat	-11.5257
buka	-11.5258
▁religious	-11.5261
▁Community	-11.5262
▁bois	-11.5263
▁product	-11.5263
▁latest	-11.5264
▁كو	-11.5266
▁photo	-11.5267
▁Uingereza	-11.5267
▁Guerra	-11.5271
▁Latsa	-11.5271
▁tantara	-11.5275
▁mère	-11.5277
▁utilisé	-11.5277
▁Ry	-11.5279
▁highest	-11.528
▁dhicin	-11.5281
▁hadlo	-11.5282
tig	-11.5282
▁quand	-11.5282
▁belangrikste	-11.5282
▁jeunes	-11.5283
euse	-11.5284
መን	-11.5285
▁complex	-11.5286
ayaal	-11.5286
▁glad	-11.5288
▁lives	-11.5289
▁doka	-11.5289
ض	-11.529
▁concept	-11.5291
▁آ	-11.5291
▁mapema	-11.5291
▁milaza	-11.5291
âge	-11.5292
▁pois	-11.5292
▁hawada	-11.5292
▁wanaweza	-11.5294
▁አምላክ	-11.5296
▁Ministry	-11.5296
▁herstel	-11.5297
▁wanga	-11.5298
▁Ita	-11.5298
iyeen	-11.5299
▁nnukwu	-11.5302
▁mosebetsi	-11.5303
▁suit	-11.5303
▁kutosha	-11.5306
መጣ	-11.5307
▁uhuru	-11.5307
koro	-11.5308
▁masewera	-11.5309
▁cannot	-11.531
▁weke	-11.5311
▁òun	-11.5313
▁fiteny	-11.5313
▁kukho	-11.5313
▁publié	-11.5314
▁Dị	-11.5314
▁ውጭ	-11.5314
▁thamani	-11.5314
▁ቢሆንም	-11.5315
sebenza	-11.5316
▁wanted	-11.5317
▁wadau	-11.5317
nyana	-11.5318
ናት	-11.5319
gé	-11.5319
pper	-11.5319
▁speed	-11.5322
▁qualquer	-11.5322
▁winning	-11.5323
▁Gaar	-11.5324
▁editor	-11.5325
▁masuul	-11.5326
▁tokko	-11.5328
▁officer	-11.5329
▁uamuzi	-11.5329
▁dhigan	-11.5329
▁Kha	-11.5331
▁idee	-11.5333
état	-11.5334
▁Wali	-11.5334
▁hope	-11.5334
thola	-11.5335
▁makes	-11.5335
▁uhlelo	-11.5339
▁ዐ	-11.5339
▁mon	-11.5339
▁Ogun	-11.5339
▁ayaana	-11.534
▁kadai	-11.534
▁warar	-11.5341
▁ato	-11.5341
▁daai	-11.5342
▁actions	-11.5343
gona	-11.5344
▁comes	-11.5346
▁imyaka	-11.5346
▁kikubwa	-11.5346
▁zakhe	-11.5347
▁beel	-11.5347
ኳ	-11.5347
▁yanayi	-11.5349
pende	-11.535
▁መሬት	-11.5351
▁changes	-11.5352
chen	-11.5353
▁ጉባኤ	-11.5354
اس	-11.5356
▁mpaghara	-11.5357
▁Kenyatta	-11.5358
▁bukata	-11.5358
▁Chuo	-11.5359
▁abandi	-11.5363
bato	-11.5363
dinga	-11.5364
▁Mala	-11.5365
▁Dankie	-11.5365
▁gestel	-11.5366
▁ጨምሮ	-11.5368
zima	-11.5369
▁officials	-11.5371
▁Olu	-11.5372
▁ntụ	-11.5373
mad	-11.5373
▁lançado	-11.5375
%),	-11.5376
els	-11.5377
▁goud	-11.5377
▁mawazo	-11.5378
sp	-11.5378
İ	-11.5378
▁milf	-11.5379
▁rahoto	-11.5383
▁nkiri	-11.5385
bale	-11.5386
oko	-11.5386
▁lintho	-11.5387
▁Abba	-11.5387
Union	-11.5388
▁Kagame	-11.5388
▁dhigtay	-11.5389
kwara	-11.5389
▁zaune	-11.5389
▁dhabta	-11.5393
▁LEDA	-11.5393
▁kanti	-11.5393
▁Journal	-11.5394
▁Carl	-11.5394
▁kudaden	-11.5396
San	-11.5397
▁ተግባር	-11.5398
▁yuko	-11.5398
▁kleur	-11.54
▁girls	-11.5401
kamba	-11.5402
▁HERE	-11.5403
adịghị	-11.5403
▁maarufu	-11.5405
▁ቤቶች	-11.5405
▁sameeyaan	-11.5409
ments	-11.541
▁مصر	-11.541
▁ilaalinta	-11.5411
plan	-11.5411
rira	-11.5413
▁Bor	-11.5414
▁Geen	-11.5414
▁desenvolvimento	-11.5415
▁fase	-11.5416
▁regime	-11.5417
ajo	-11.5418
▁interview	-11.5418
▁zvikuru	-11.5419
tsoa	-11.5421
ric	-11.5421
▁jerin	-11.5422
▁amateur	-11.5423
sit	-11.5423
▁sign	-11.5426
▁build	-11.5427
▁canal	-11.5427
▁seconde	-11.5429
▁Nan	-11.5429
▁safe	-11.5429
hira	-11.5431
▁matter	-11.5432
▁doonaya	-11.5433
▁Iwe	-11.5433
▁barnaamijka	-11.5435
▁petite	-11.5436
▁Abin	-11.5437
▁hape	-11.5437
▁Ag	-11.5437
akari	-11.5438
▁caused	-11.5438
▁less	-11.5439
▁promotion	-11.5441
jwe	-11.5441
▁uthe	-11.5442
▁lesi	-11.5443
▁isaa	-11.5443
nareo	-11.5444
mag	-11.5447
▁quais	-11.5448
▁dalili	-11.5448
▁Halmashauri	-11.5449
▁tano	-11.545
▁Wel	-11.5452
▁baxo	-11.5453
▁nwanyị	-11.5454
▁utaratibu	-11.5454
las	-11.5454
▁nokuthi	-11.5456
▁engu	-11.5456
▁seria	-11.5457
▁miasa	-11.5457
▁رو	-11.5458
▁Abraham	-11.5458
▁soku	-11.5459
▁Liga	-11.5463
ili	-11.5464
▁champion	-11.5466
▁ID	-11.5466
▁halis	-11.5466
uff	-11.5468
▁sanadka	-11.5469
▁vu	-11.5472
▁follow	-11.5473
cur	-11.5474
▁watch	-11.5475
▁ray	-11.5475
▁Matt	-11.5475
hr	-11.5475
ago	-11.5476
▁msimu	-11.5476
▁nile	-11.5477
▁Bil	-11.5477
boek	-11.5478
lise	-11.548
å	-11.548
▁década	-11.548
stre	-11.5482
▁Studio	-11.5483
▁lorsque	-11.5484
▁Model	-11.5484
▁kijamii	-11.5486
nyanga	-11.5487
▁finalement	-11.5487
▁Boy	-11.5488
▁thing	-11.5488
▁Kaapstad	-11.5489
▁lede	-11.5489
▁tye	-11.5493
sam	-11.5493
▁allah	-11.5494
▁Korean	-11.5494
ሟ	-11.5496
▁sheego	-11.5497
▁uitge	-11.5498
▁Swahili	-11.5499
▁ongeveer	-11.55
▁dalku	-11.5501
ዌ	-11.5503
▁daraja	-11.5504
▁dalkaasi	-11.5504
▁Ọrụ	-11.5507
▁ervaar	-11.5507
▁جبل	-11.5508
▁Xeer	-11.5511
▁haal	-11.5513
▁dhigi	-11.5515
▁ngakhale	-11.5515
▁photos	-11.5515
▁Mandela	-11.5516
▁ዙሪያ	-11.5516
ø	-11.5517
école	-11.5517
▁pryse	-11.5517
class	-11.5518
▁ipinlẹ	-11.552
▁Parliament	-11.5521
▁Hivyo	-11.5521
▁king	-11.5523
dho	-11.5526
▁diegene	-11.5528
▁ፍላጎት	-11.5529
▁rondom	-11.553
▁KUMA	-11.553
▁Kasi	-11.553
▁cinco	-11.5537
weg	-11.5537
lima	-11.5537
▁fannin	-11.5538
▁loola	-11.5538
▁Haa	-11.5538
▁survey	-11.5539
▁tsaron	-11.5541
▁ሥርዓት	-11.5544
▁needs	-11.5544
▁ora	-11.5545
aikatar	-11.5545
▁kunjalo	-11.5547
▁mahazo	-11.5549
ኦም	-11.555
She	-11.5551
ec	-11.5551
▁Amateur	-11.5555
rani	-11.5555
▁Medical	-11.5555
▁domaine	-11.5558
KO	-11.5558
▁entire	-11.5559
anta	-11.5559
▁leadership	-11.556
▁VIDEO	-11.5561
jú	-11.5562
▁technique	-11.5564
▁Latest	-11.5564
▁ikike	-11.5565
▁coming	-11.5566
▁kuro	-11.5566
▁Conseil	-11.5566
▁Conference	-11.5567
▁certaines	-11.5567
▁qaad	-11.5568
▁Ter	-11.5569
▁ቤቱ	-11.5569
▁chose	-11.557
▁kowace	-11.557
ev	-11.557
▁sezvo	-11.5571
▁kallon	-11.5572
▁Latin	-11.5572
▁Garoonka	-11.5573
▁Not	-11.5577
▁beeld	-11.5578
▁verskaf	-11.5578
▁nouvelles	-11.5579
▁kusaidia	-11.5579
gee	-11.558
▁ori	-11.5581
▁marang	-11.5581
chita	-11.5582
▁rus	-11.5582
ndra	-11.5582
▁osa	-11.5582
ical	-11.5583
▁lagula	-11.5584
▁gbé	-11.5584
▁ስለሚ	-11.5586
▁mataki	-11.5586
▁kufuneka	-11.5587
▁marque	-11.5588
▁leta	-11.5588
▁waɗannan	-11.5589
▁Horn	-11.5591
▁minimum	-11.5593
Ju	-11.5593
▁nilo	-11.5595
▁obtient	-11.5595
▁ọgwụ	-11.5595
▁propre	-11.5597
ivo	-11.5598
▁trou	-11.5599
▁fata	-11.56
▁bixiyay	-11.56
▁Santos	-11.5601
▁diere	-11.5603
▁tupu	-11.5604
hal	-11.5606
mene	-11.5607
▁premières	-11.5607
▁baxaan	-11.5607
▁Hawa	-11.5609
▁ụtọ	-11.5609
▁Empa	-11.5614
▁wọnyi	-11.5614
▁dola	-11.5615
▁Carolina	-11.5616
▁Special	-11.5617
ayd	-11.5617
▁Stars	-11.5619
▁Kho	-11.5621
▁anarana	-11.5623
▁fees	-11.5623
▁banaan	-11.5624
▁mtundu	-11.5625
▁nacional	-11.5627
kaaga	-11.5628
▁Nyerere	-11.5628
▁palibe	-11.5628
▁Ohun	-11.5629
arka	-11.5629
▁utawala	-11.5629
▁qabaan	-11.5629
gy	-11.5632
eche	-11.5632
▁fevereiro	-11.5633
▁haina	-11.5635
▁hoef	-11.5636
▁Além	-11.5637
giisa	-11.5638
bho	-11.5639
gg	-11.564
▁ɗin	-11.5641
▁multiple	-11.5642
▁canza	-11.5643
▁stil	-11.5643
dry	-11.5645
<	-11.5648
▁URL	-11.5651
▁magari	-11.5651
▁vbe	-11.5651
▁deegaan	-11.5652
▁suivant	-11.5652
▁hawana	-11.5658
▁forced	-11.566
text	-11.566
kg	-11.566
aide	-11.5661
sani	-11.5662
▁ianareo	-11.5664
▁nothing	-11.5667
buu	-11.5667
▁tún	-11.5669
Ri	-11.5669
ዜ	-11.567
lika	-11.5671
niya	-11.5674
▁kwallon	-11.5675
▁individuals	-11.5675
weka	-11.5677
▁የውጭ	-11.5677
▁Tag	-11.5677
▁karne	-11.5678
▁label	-11.5679
▁qar	-11.5681
▁🎁	-11.5681
▁caawin	-11.5682
bera	-11.5682
ets	-11.5683
Est	-11.5683
docid	-11.5683
okpuru	-11.5684
▁Shehu	-11.5684
▁maganar	-11.5685
Ru	-11.5685
javatra	-11.5688
▁particularly	-11.5692
▁kaalinta	-11.5694
▁ekhaya	-11.5696
nus	-11.5697
malo	-11.5698
▁karfi	-11.57
action	-11.57
▁marriage	-11.5701
▁caruurta	-11.5703
▁iOS	-11.5704
▁blood	-11.5705
▁gahunda	-11.5705
▁Maha	-11.5706
▁recebeu	-11.5706
▁karfin	-11.5709
▁kufika	-11.571
ă	-11.571
▁Plan	-11.5713
Ụ	-11.5715
▁taux	-11.5717
istes	-11.5718
▁algemeen	-11.5719
▁clear	-11.5721
ናቸው	-11.5721
▁ጦርነት	-11.5723
baya	-11.5724
▁karya	-11.5724
rak	-11.5725
▁ايران	-11.5727
▁phansi	-11.5728
Zi	-11.5731
▁halisi	-11.5732
▁energie	-11.5733
▁murume	-11.5733
▁tipe	-11.5734
▁Sena	-11.5735
▁apho	-11.5737
argent	-11.5737
▁ange	-11.5738
ification	-11.5738
▁mind	-11.574
▁gaa	-11.574
▁yeroo	-11.5741
▁kutaka	-11.5741
▁bụghị	-11.5743
▁avaient	-11.5743
ክል	-11.5745
▁kontak	-11.5747
▁pupọ	-11.5748
▁Copa	-11.5748
▁mina	-11.575
ml	-11.5751
▁distribution	-11.5753
▁furaha	-11.5753
▁Janar	-11.5754
▁الح	-11.5755
▁Shan	-11.5757
▁sanadkan	-11.5757
▁toka	-11.5758
▁ajira	-11.5758
Dan	-11.5758
▁IT	-11.576
yaha	-11.5762
achọ	-11.5763
▁lequel	-11.5764
▁baahi	-11.5765
plek	-11.5766
▁note	-11.5766
▁sebe	-11.5766
▁Wales	-11.5766
ters	-11.5767
▁ስሜት	-11.5768
MB	-11.5769
▁singer	-11.5769
▁Paulus	-11.5769
▁Hey	-11.5771
▁xuquuqda	-11.5771
▁Ubangiji	-11.5771
ward	-11.5772
▁hloka	-11.5772
▁Night	-11.5773
▁Haar	-11.5773
▁rapidement	-11.5774
ጠው	-11.5775
▁makore	-11.5775
antu	-11.5778
▁salaam	-11.5778
▁Sta	-11.5779
laan	-11.5781
▁Aza	-11.5781
▁Durante	-11.5781
▁Kwi	-11.5782
▁hukuncin	-11.5784
hora	-11.5785
▁ciyaaraha	-11.5786
tum	-11.5786
▁upinzani	-11.5786
▁dele	-11.5787
▁Natural	-11.5789
▁income	-11.579
▁Kazi	-11.5793
sun	-11.5793
▁Noord	-11.5793
▁Dha	-11.5797
tsaina	-11.5798
▁kancane	-11.5798
▁stations	-11.58
▁Eritrea	-11.5801
▁anfani	-11.5803
▁lilo	-11.5803
▁luister	-11.5804
▁nyama	-11.5804
▁Ruushka	-11.5805
ላይ	-11.5807
▁soke	-11.581
▁dugsiga	-11.581
▁Share	-11.5812
▁xukunka	-11.5812
▁ezigbo	-11.5814
▁tips	-11.5816
▁message	-11.5816
▁Henri	-11.5817
▁ohatra	-11.5818
▁Jerusalem	-11.5818
▁elles	-11.5818
▁dhaxeeya	-11.5818
▁kuza	-11.5821
▁Madoobe	-11.5823
xan	-11.5823
▁ikon	-11.5823
▁arzikin	-11.5824
▁wanachama	-11.5824
down	-11.5827
▁Abiy	-11.5827
▁miti	-11.5828
▁lix	-11.5829
▁seule	-11.5829
▁vet	-11.583
▁commission	-11.5831
▁akory	-11.5832
▁የሰው	-11.5833
pole	-11.5833
▁Xxx	-11.5834
tama	-11.5835
▁dakatar	-11.5835
gura	-11.5836
naan	-11.5837
ọrọ	-11.5837
▁nooca	-11.5837
▁Manuel	-11.5838
▁kusvika	-11.5838
č	-11.5841
ganda	-11.5843
▁ቅድሚያ	-11.5843
▁magaalo	-11.5845
▁Mahakama	-11.5845
▁older	-11.5847
họ	-11.5848
▁attention	-11.5849
▁têm	-11.5851
zza	-11.5852
▁سا	-11.5853
sano	-11.5854
RO	-11.5854
muka	-11.5854
▁ambany	-11.5856
ቸ	-11.5857
▁Verenigde	-11.5857
zidi	-11.5858
▁gbà	-11.5862
▁forward	-11.5862
▁Munich	-11.5863
▁የሆኑ	-11.5863
FA	-11.5864
▁Travel	-11.5866
iisal	-11.5866
ozi	-11.5867
▁ulwazi	-11.5867
lokhu	-11.5867
▁ukudla	-11.5868
▁becoming	-11.5869
▁CHADEMA	-11.587
MI	-11.5871
▁données	-11.5871
▁carruurta	-11.5872
▁olo	-11.5873
▁haysan	-11.5875
▁Kigali	-11.5879
▁gedurende	-11.588
▁wapo	-11.5886
▁Balse	-11.5888
▁Tor	-11.5888
GB	-11.589
ash	-11.589
khona	-11.5894
ao	-11.5895
▁tsona	-11.5895
▁Warfaafinta	-11.5895
▁clubs	-11.5895
▁الانواع	-11.5895
▁maioria	-11.5896
waar	-11.5896
▁mé	-11.5897
oga	-11.5897
▁akazi	-11.5898
▁zvakanaka	-11.5899
▁brief	-11.59
▁beer	-11.5901
▁Wet	-11.5902
▁gesin	-11.5902
▁Full	-11.5906
▁mphamvu	-11.5907
ّ	-11.5908
▁Taylor	-11.591
▁Junior	-11.5911
▁application	-11.5911
▁chelete	-11.5911
▁joue	-11.5912
▁nakwa	-11.5913
All	-11.5916
cle	-11.5917
fani	-11.592
lula	-11.5923
▁Britse	-11.5924
cker	-11.5924
tshe	-11.5926
▁Holland	-11.5926
Pi	-11.5926
ADA	-11.5927
phuma	-11.5931
▁Eastern	-11.5931
▁Jay	-11.5932
ū	-11.5932
▁munyika	-11.5934
▁kuleta	-11.5935
▁institutions	-11.5937
▁bọ	-11.5937
▁remains	-11.5937
▁ግብ	-11.594
▁nada	-11.594
▁GA	-11.594
qua	-11.5941
▁Pacific	-11.5941
▁campagne	-11.5942
▁Caalamiga	-11.5942
▁toban	-11.5943
hile	-11.5943
sikia	-11.5943
ongoza	-11.5944
▁Laat	-11.5946
▁Lang	-11.5946
غ	-11.5946
▁ibu	-11.5947
▁Ganacsiga	-11.5947
▁arrimo	-11.5948
▁mesma	-11.5949
▁Shaqaalaha	-11.595
▁passed	-11.5952
▁shirkii	-11.5952
▁cum	-11.5952
mid	-11.5953
ዎን	-11.5956
kke	-11.5957
▁Theatre	-11.5957
▁muitas	-11.5958
▁guddi	-11.5958
IN	-11.5959
▁verbeter	-11.596
prys	-11.5961
▁ለዚህ	-11.5961
cou	-11.5964
▁laabtay	-11.5964
bet	-11.5965
▁qaabilsan	-11.5965
IP	-11.5965
▁Main	-11.5966
▁pansi	-11.5966
istas	-11.5967
▁Chadema	-11.5967
data	-11.5967
▁muziki	-11.5968
▁verskeidenheid	-11.5969
LE	-11.5969
ሆ	-11.597
▁niemand	-11.597
▁square	-11.5971
▁climat	-11.5972
مرصد	-11.5974
▁Wal	-11.5975
▁cyo	-11.5979
▁ዶላር	-11.5985
▁Sydney	-11.5985
▁Like	-11.5985
stand	-11.5986
▁Elke	-11.5987
▁tradition	-11.599
▁Oromoo	-11.5992
lezi	-11.5993
abandi	-11.5993
ו	-11.5996
▁iyaguna	-11.5997
iska	-11.5997
▁railway	-11.5998
▁xoogga	-11.5998
▁makon	-11.5999
afa	-11.6
imyaka	-11.6
ral	-11.6002
▁proche	-11.6003
▁Brian	-11.6004
▁wase	-11.6004
▁ure	-11.6004
▁mkataba	-11.6005
▁abaningi	-11.6005
▁generally	-11.6005
▁ይሄ	-11.6008
▁Noma	-11.6009
▁aand	-11.6009
▁Email	-11.601
▁nooc	-11.601
▁limited	-11.601
▁lack	-11.6011
▁Dollar	-11.6011
▁tele	-11.6011
▁Moscow	-11.6013
FC	-11.6015
ngena	-11.6015
▁qodob	-11.6017
▁Lapho	-11.6018
▁horeeyay	-11.6018
ology	-11.6019
▁Kristu	-11.6019
fen	-11.602
▁kommentaar	-11.602
▁abaal	-11.6021
▁igihugu	-11.6021
page	-11.6021
cor	-11.6023
▁Eric	-11.6025
aaya	-11.6025
▁sorg	-11.6025
▁ondersteuning	-11.6026
bie	-11.6027
▁Musulmi	-11.6028
▁መስመር	-11.6029
▁politiques	-11.6034
cio	-11.6036
▁ልብ	-11.6038
▁الاداريه	-11.604
kiisu	-11.604
▁Laraba	-11.6041
▁ballan	-11.6042
▁eg	-11.6043
▁Dam	-11.6043
▁Entertainment	-11.6043
kawa	-11.6048
▁Point	-11.6049
▁relação	-11.6051
rait	-11.6051
subiri	-11.6051
▁Maris	-11.6051
▁Channel	-11.6055
▁ትግራይ	-11.6055
ы	-11.6057
▁በዓለም	-11.6057
len	-11.6057
▁openbare	-11.6058
▁lived	-11.6059
▁PDF	-11.606
▁bixiyey	-11.6063
▁posted	-11.6063
▁FI	-11.6064
▁እናም	-11.6067
▁victory	-11.6067
▁eti	-11.6069
በው	-11.607
▁eze	-11.607
▁xanuunka	-11.6071
▁Exam	-11.6072
▁carte	-11.6073
▁Waxaanu	-11.6073
▁vinthu	-11.6074
▁cash	-11.6077
▁abaturage	-11.608
manja	-11.6081
▁Sand	-11.6081
▁Article	-11.6082
▁dorp	-11.6082
▁addinin	-11.6085
▁presies	-11.6085
▁ose	-11.6086
▁lonse	-11.6088
▁sector	-11.609
▁ሺህ	-11.6091
▁Mada	-11.6092
raha	-11.6093
▁avokoa	-11.6093
▁danta	-11.6093
▁Ainsi	-11.6094
▁buildings	-11.6096
▁kuangalia	-11.6098
onyesha	-11.61
▁sadarwa	-11.61
▁Mini	-11.61
ient	-11.6103
▁kufa	-11.6103
tting	-11.6103
▁Ts	-11.6103
▁homme	-11.6103
▁kholo	-11.6104
▁cross	-11.6104
▁facebook	-11.6106
▁DW	-11.6106
▁Tusaale	-11.6106
▁iigu	-11.6107
▁amu	-11.6108
oldid	-11.6108
▁Johan	-11.6108
▁owned	-11.6109
ahooda	-11.6111
vie	-11.6111
▁Tsohon	-11.6112
▁arin	-11.6112
▁politics	-11.6112
šo	-11.6113
▁República	-11.6113
▁kordhin	-11.6115
▁Ram	-11.6116
</	-11.6116
▁geeriyooday	-11.6118
يت	-11.6119
▁የሆነው	-11.6119
baka	-11.612
▁aliyense	-11.612
iinta	-11.6121
tshi	-11.6122
▁yiraahdo	-11.6122
▁Maro	-11.6122
ط	-11.6123
ዒ	-11.6124
▁dokokin	-11.6126
DC	-11.6126
▁omkhulu	-11.6128
▁Mudug	-11.6128
▁boom	-11.6128
ologie	-11.6132
illa	-11.6134
▁zabi	-11.6134
▁bladsy	-11.6135
▁treatment	-11.6135
kisi	-11.6135
LO	-11.6136
▁anale	-11.6137
tiin	-11.6137
▁ik	-11.6137
ብን	-11.6139
▁rule	-11.6139
▁Taiwan	-11.614
▁Hargeisa	-11.614
▁kata	-11.614
shan	-11.6141
▁Bariga	-11.6141
▁rabaa	-11.6143
ዉን	-11.6144
ሰማ	-11.6144
▁ọrịa	-11.6145
▁cikakken	-11.6147
skool	-11.6149
eyd	-11.615
pers	-11.6151
Free	-11.6152
▁join	-11.6153
ifi	-11.6155
▁Price	-11.6155
lum	-11.6157
▁ጥቃት	-11.6159
▁haɗa	-11.6159
▁maniere	-11.616
log	-11.6161
▁lalao	-11.6161
ŋ	-11.6161
som	-11.6161
▁lita	-11.6162
gang	-11.6165
▁fuck	-11.6166
▁midna	-11.6168
▁serait	-11.6168
▁mesure	-11.6168
▁gudun	-11.6169
▁አም	-11.6169
▁fantatra	-11.617
▁jeshi	-11.617
cela	-11.617
▁Annabi	-11.6172
▁Bernard	-11.6172
▁አይደለም።	-11.6172
▁nibi	-11.6173
▁muuqaal	-11.6175
▁Ayuu	-11.6176
ነትን	-11.6177
▁despite	-11.6178
▁meaning	-11.6178
▁Gabiley	-11.6179
▁Basi	-11.6181
▁Aku	-11.6181
ador	-11.6182
▁créé	-11.6183
▁risk	-11.6184
▁chino	-11.6184
▁Arthur	-11.6185
▁Walter	-11.6185
▁contrôle	-11.6185
▁CE	-11.6185
▁skuld	-11.6185
uze	-11.6186
▁waziri	-11.6187
Bar	-11.6187
kaan	-11.6187
▁ከዚያ	-11.6187
▁kusoma	-11.6188
▁Litinin	-11.6188
▁terrain	-11.6189
▁tegay	-11.6189
bon	-11.619
▁Horumarinta	-11.619
▁Denmark	-11.6192
▁Tony	-11.6192
ín	-11.6193
ppe	-11.6193
▁silẹ	-11.6194
▁additional	-11.6194
nnu	-11.6195
▁bebe	-11.6195
▁wyse	-11.6196
▁huit	-11.6196
▁Warbixin	-11.6197
▁prendre	-11.6198
▁ተቋማት	-11.6201
▁Wit	-11.6202
▁vul	-11.6203
dani	-11.6203
▁FX	-11.6204
▁በመቶ	-11.6206
▁Name	-11.6206
six	-11.6206
belo	-11.6207
▁Otu	-11.6207
▁hisy	-11.6207
ሆን	-11.6208
▁associated	-11.621
handel	-11.6212
▁bat	-11.6215
▁erken	-11.6216
▁religion	-11.6221
▁dilka	-11.6225
MU	-11.6225
ሯ	-11.6227
▁Georgia	-11.6227
iyaan	-11.6228
▁fihlela	-11.6228
ብል	-11.6229
▁runs	-11.623
▁techniques	-11.6231
▁akati	-11.6232
nà	-11.6232
▁entry	-11.6233
▁aangebied	-11.6233
▁document	-11.6234
siyana	-11.6234
▁Pet	-11.6235
▁Gedo	-11.6235
▁adeegyada	-11.6235
▁tsirairay	-11.6235
▁carreira	-11.6236
▁bazi	-11.6237
▁spesiale	-11.6237
▁sea	-11.6237
▁Jeshi	-11.6238
▁handels	-11.6239
▁Anthony	-11.624
entre	-11.6242
▁Sidee	-11.6242
▁Porto	-11.6243
▁Vrou	-11.6244
ም፤	-11.6244
▁hano	-11.6246
▁Kí	-11.6246
▁pressure	-11.6246
▁redes	-11.6247
▁Assembly	-11.6248
▁award	-11.6251
▁interior	-11.6251
▁kiran	-11.6252
pon	-11.6252
▁xukun	-11.6253
▁manne	-11.6253
▁reçoit	-11.6254
▁Sacuudiga	-11.6254
▁ilana	-11.6257
saan	-11.6257
▁départ	-11.6257
▁cour	-11.6258
▁mpilalao	-11.6259
àna	-11.626
▁Fox	-11.6262
▁press	-11.6265
▁ልማት	-11.6265
galay	-11.6265
▁ክት	-11.6266
▁ammaan	-11.6266
▁bayanin	-11.6267
▁imekuwa	-11.6267
▁sister	-11.6268
▁joueur	-11.6273
▁ibintu	-11.6273
▁historia	-11.6274
▁sexual	-11.6277
kare	-11.6278
mie	-11.6279
▁euro	-11.6279
oc	-11.628
▁sauki	-11.628
▁matches	-11.628
Waxaa	-11.628
▁Gobolada	-11.6281
ئ	-11.6281
▁jarida	-11.6282
naijcomhausa	-11.6283
▁fanjakana	-11.6283
▁Nation	-11.6283
▁writer	-11.6283
▁sugnaa	-11.6284
▁kumbe	-11.6285
▁gauche	-11.6285
▁concert	-11.6285
▁madzi	-11.6287
zz	-11.6288
▁hadlayay	-11.6288
ezie	-11.6291
▁tswa	-11.6293
▁musi	-11.6293
▁duc	-11.6294
lim	-11.6296
▁Iwo	-11.6296
IT	-11.6296
CE	-11.6296
ود	-11.6299
▁personnel	-11.6299
▁iwm	-11.63
▁Dun	-11.6301
▁bande	-11.6301
chifukwa	-11.6301
▁faraha	-11.6302
▁voorbeeld	-11.6304
▁Hadii	-11.6305
mile	-11.6305
▁ẹya	-11.6305
hood	-11.6306
▁Blackjack	-11.6306
▁teks	-11.6308
▁zvose	-11.6308
▁USB	-11.631
▁አሜሪካ	-11.6311
▁Jersey	-11.6316
nov	-11.6316
▁Ohio	-11.6317
mee	-11.6317
▁filin	-11.6318
▁defeated	-11.632
▁ጉ	-11.632
dalana	-11.632
▁nchekwa	-11.6321
▁sheegayaan	-11.6324
▁saameyn	-11.6326
view	-11.6326
▁dhalatay	-11.6327
▁riga	-11.6328
▁kifo	-11.6329
▁anati	-11.6329
▁Anale	-11.6329
▁shaka	-11.633
▁ማስ	-11.633
kola	-11.633
▁Finland	-11.633
▁channel	-11.6331
▁متر	-11.6331
▁هى	-11.6331
▁شارك	-11.6332
ša	-11.6334
▁Nabad	-11.6335
▁papel	-11.6336
▁Soomaalidu	-11.6338
▁articles	-11.6339
▁box	-11.6339
▁collaboration	-11.6339
▁nngwe	-11.6339
▁ገና	-11.6339
▁titi	-11.634
funika	-11.6341
▁iminyaka	-11.6341
▁lapha	-11.6341
▁sina	-11.6342
▁Gaan	-11.6343
▁ጨዋታ	-11.6343
▁degmooyinka	-11.6343
▁Abwaan	-11.6344
▁iba	-11.6344
▁mahakama	-11.6345
tada	-11.6346
▁hubka	-11.6346
ጐ	-11.6351
▁Ṣe	-11.6353
з	-11.6354
▁Talyaaniga	-11.6355
▁akara	-11.6355
▁nwee	-11.6356
▁Career	-11.6356
▁cab	-11.6358
qe	-11.6358
▁characters	-11.6358
▁needed	-11.6359
pirenen	-11.6361
▁lura	-11.6362
▁usu	-11.6362
▁gaaro	-11.6363
▁ጥረት	-11.6363
▁ግዜ	-11.6363
nayn	-11.6366
▁ስልጣን	-11.6366
oku	-11.637
▁Ly	-11.637
▁keeno	-11.637
▁impact	-11.6373
tory	-11.6373
▁percent	-11.6373
▁machine	-11.6373
HA	-11.6374
▁viagra	-11.6375
lira	-11.6375
▁island	-11.6375
▁Badda	-11.6376
▁municipal	-11.6376
▁ZF	-11.6377
▁raised	-11.6377
ável	-11.6377
udi	-11.6378
▁arrintan	-11.6379
▁barua	-11.6384
▁ات	-11.6384
ní	-11.6384
▁Hollywood	-11.6386
▁Ili	-11.6386
▁ጉዞ	-11.6387
▁county	-11.6387
▁myself	-11.6387
▁principais	-11.6387
▁Lewis	-11.6388
▁taminy	-11.639
GE	-11.639
▁socoto	-11.639
▁koning	-11.639
À	-11.6392
▁mune	-11.6394
▁goals	-11.6395
uur	-11.6395
ላል	-11.6396
▁ngemuva	-11.6396
▁yimi	-11.6398
ED	-11.6399
▁conflict	-11.64
▁bekende	-11.64
چ	-11.6401
▁Diinta	-11.6401
zani	-11.6403
▁ngazi	-11.6403
▁hemel	-11.6403
tation	-11.6405
akpọ	-11.6405
sanga	-11.6405
▁Sri	-11.6406
ving	-11.6407
▁Jamii	-11.6408
iques	-11.6408
▁tale	-11.6412
▁uzi	-11.6413
▁voit	-11.6414
▁bwana	-11.6415
▁sing	-11.6415
▁በአሁኑ	-11.6416
▁Farfesa	-11.6416
▁western	-11.6417
▁enkele	-11.6418
▁Cur	-11.642
ative	-11.642
▁numerous	-11.642
▁madaxtooyada	-11.642
▁Der	-11.642
▁bra	-11.6421
Gen	-11.6422
▁pos	-11.6424
▁tsari	-11.6425
▁annonce	-11.6425
▁bespreek	-11.6426
▁ለምሳሌ	-11.6426
▁wasaarada	-11.6428
▁visa	-11.6428
▁kwaku	-11.6429
▁sortie	-11.6431
▁verminder	-11.6432
▁effects	-11.6433
video	-11.6433
▁hoje	-11.6434
▁የለም	-11.6435
▁rug	-11.6435
SI	-11.6435
▁taariikh	-11.6435
▁kabiri	-11.6436
ayuu	-11.6437
vaka	-11.6437
yadu	-11.6438
▁matetika	-11.6439
▁laifin	-11.6439
cam	-11.6439
ሰብ	-11.644
▁ngoko	-11.6442
▁ፖሊስ	-11.6447
ache	-11.6447
▁Are	-11.6448
▁demi	-11.6448
▁unayo	-11.6448
▁byose	-11.6448
▁መንፈስ	-11.6451
▁kwama	-11.6454
▁nahita	-11.6456
▁ilaina	-11.6458
▁principalement	-11.6458
gna	-11.6459
aria	-11.6459
▁Chifukwa	-11.6459
▁Zvi	-11.6459
▁grade	-11.646
▁yimaado	-11.6461
®	-11.6462
▁tuntun	-11.6462
atti	-11.6464
▁Hivi	-11.6464
fr	-11.6464
dood	-11.6466
▁Pass	-11.6466
▁theory	-11.6466
bes	-11.6466
▁Standard	-11.6467
▁Depois	-11.6468
▁uhusiano	-11.6468
▁banga	-11.6468
▁ሆኖም	-11.6471
▁Xoghayaha	-11.6471
▁Lagos	-11.6472
▁makini	-11.6473
▁munga	-11.6473
▁gobalka	-11.6475
▁arrintaas	-11.6476
▁Kiswahili	-11.6476
Zimbabwe	-11.6476
▁nau	-11.6476
sim	-11.6477
▁kwao	-11.6479
▁gesprek	-11.6479
▁ndlela	-11.648
fikia	-11.648
▁ges	-11.648
▁taasina	-11.648
dores	-11.648
▁Mugabe	-11.6482
zungu	-11.6482
sid	-11.6482
▁sound	-11.6482
▁entered	-11.6483
▁hadli	-11.6488
▁Switzerland	-11.649
▁akai	-11.649
hai	-11.649
▁VSA	-11.649
▁épouse	-11.6493
▁potential	-11.6494
▁recently	-11.6495
▁akizungumza	-11.6495
tswe	-11.6495
▁vue	-11.6495
ራቸው	-11.6495
?’	-11.6496
fra	-11.6496
▁ዘር	-11.6497
dre	-11.6497
▁qaateen	-11.6498
▁try	-11.6499
▁Juni	-11.65
▁feature	-11.6501
▁nkan	-11.6501
▁wazazi	-11.6501
▁carried	-11.6502
zar	-11.6502
▁sukses	-11.6503
▁selected	-11.6506
▁deegaanada	-11.6506
▁attacks	-11.6506
▁ilé	-11.6506
▁tell	-11.6507
▁Discussion	-11.6507
▁tidhi	-11.6508
▁ebi	-11.6508
bali	-11.651
▁gabar	-11.651
▁arday	-11.6511
▁fadhiya	-11.6512
▁lapansi	-11.6513
▁terre	-11.6513
cre	-11.6515
▁Leh	-11.6516
▁focus	-11.6516
▁Comme	-11.6517
▁rejoint	-11.6517
▁china	-11.6518
▁wipe	-11.6518
rol	-11.6518
▁Gra	-11.6518
raan	-11.652
baye	-11.6522
▁secret	-11.6525
▁arewa	-11.6525
▁khilaafka	-11.6526
▁Vegas	-11.6526
▁አመ	-11.6528
▁amper	-11.6528
▁Family	-11.6529
▁Brand	-11.6531
يف	-11.6532
▁ọchịchị	-11.6532
asha	-11.6533
list	-11.6533
▁islaamka	-11.6536
zve	-11.6536
▁pese	-11.6536
linda	-11.6537
▁ancien	-11.654
▁Ligue	-11.6541
▁helped	-11.6541
▁mazava	-11.6542
▁économique	-11.6542
▁Fer	-11.6542
▁Kadib	-11.6542
tswa	-11.6544
▁aro	-11.6544
▁público	-11.6544
jarige	-11.6545
az	-11.6546
▁kucheza	-11.6547
▁እርምጃ	-11.6548
▁Lyon	-11.6548
bisa	-11.6549
▁sam	-11.6553
▁Israa	-11.6555
▁européenne	-11.6555
dou	-11.6556
▁Ed	-11.6557
▁wamekuwa	-11.6557
▁mitovy	-11.656
▁muhiimsan	-11.6561
▁tareenka	-11.6562
▁signal	-11.6563
▁livro	-11.6564
▁table	-11.6564
▁xilliga	-11.6565
▁communication	-11.6565
AL	-11.6566
▁luta	-11.6566
kee	-11.6567
▁Olee	-11.6568
▁waday	-11.6568
▁xiga	-11.6568
▁color	-11.6569
▁faruwa	-11.6569
ι	-11.6569
▁እሱ	-11.6569
▁waxyaabo	-11.6569
▁kufunga	-11.657
mor	-11.657
▁Both	-11.6571
ZA	-11.6571
▁Kry	-11.6572
sisi	-11.6572
▁membros	-11.6574
▁Silva	-11.6574
▁katiba	-11.6576
iv	-11.6577
▁jawo	-11.6578
▁Stone	-11.6581
▁ẹ̀	-11.6581
▁Republican	-11.6582
▁sojoji	-11.6583
▁tranonkala	-11.6584
▁Egypt	-11.6584
▁kwanaki	-11.6586
▁GO	-11.6587
gno	-11.6588
rup	-11.6589
▁responsible	-11.659
▁Ruto	-11.659
▁ilẹ	-11.6591
▁dzina	-11.6591
▁uchunguzi	-11.6591
▁mpianatra	-11.6592
▁jikin	-11.6592
▁tso	-11.6593
▁ንም	-11.6594
▁takes	-11.6596
▁pot	-11.6597
TD	-11.6601
gaar	-11.6602
ዋል	-11.6603
▁budget	-11.6603
▁ፊት	-11.6604
▁Fri	-11.6604
▁جو	-11.6605
▁boy	-11.6606
▁América	-11.6606
▁Software	-11.6606
></	-11.6607
▁bak	-11.6608
▁laha	-11.6608
▁ngempela	-11.661
▁Wixii	-11.6611
▁Philip	-11.6612
▁Iya	-11.6612
▁teknolojia	-11.6612
▁feel	-11.6612
ulo	-11.6613
▁statement	-11.6613
▁aterineto	-11.6613
▁እንኳ	-11.6614
▁marna	-11.6614
▁horyaalka	-11.6615
▁kamer	-11.6615
▁አው	-11.6616
▁Recommended	-11.6616
▁qaadatay	-11.6617
▁tlo	-11.6618
▁operation	-11.662
tv	-11.662
▁lid	-11.662
▁amanzi	-11.6622
▁nyimbo	-11.6622
▁yé	-11.6624
▁SP	-11.6625
tele	-11.6626
▁ኳስ	-11.6627
uya	-11.6628
▁pyn	-11.6628
kwenza	-11.6628
▁Haweenka	-11.6628
▁Test	-11.6628
▁afite	-11.6629
faka	-11.663
▁supported	-11.663
▁shaqeeyo	-11.6631
▁chanson	-11.6632
▁Polish	-11.6632
▁kupa	-11.6632
▁gali	-11.6632
جر	-11.6633
▁Fire	-11.6633
▁dhowaan	-11.6633
▁masuuliyiinta	-11.6635
▁verandering	-11.6637
nywe	-11.6637
▁Noho	-11.6638
▁please	-11.6639
▁verhaal	-11.6639
▁iskugu	-11.6639
uke	-11.6642
▁Governor	-11.6642
▁bedryf	-11.6643
▁Taa	-11.6643
▁gooni	-11.6644
▁Poland	-11.6644
▁shigo	-11.6646
▁dukan	-11.6647
▁qoyska	-11.6647
gaa	-11.665
";	-11.665
▁imisebenzi	-11.6651
odi	-11.6652
▁là	-11.6652
▁crise	-11.6652
bla	-11.6653
▁caalami	-11.6653
link	-11.6654
dehibe	-11.6655
▁uburyo	-11.6656
!!!!	-11.6657
nova	-11.6657
▁rangi	-11.6657
▁amafaranga	-11.6658
▁sinu	-11.6662
▁Fur	-11.6662
▁Libya	-11.6662
▁dzino	-11.6663
▁markaan	-11.6663
▁dza	-11.6663
▁Factory	-11.6664
▁hukumomin	-11.6665
MG	-11.6666
▁lantarki	-11.6667
iji	-11.6667
▁participation	-11.6669
▁nasionale	-11.667
▁Money	-11.667
▁hooyo	-11.6671
▁semble	-11.6672
▁Cod	-11.6673
▁presented	-11.6674
May	-11.6674
▁contrat	-11.6675
▁shu	-11.6676
▁dab	-11.6678
▁በተመለከተ	-11.6678
riza	-11.6678
▁Molimo	-11.6679
▁heshay	-11.6679
▁jiran	-11.668
▁wahala	-11.668
mata	-11.6682
▁gestuur	-11.6683
▁WANNAN	-11.6684
▁gang	-11.6688
laba	-11.6689
▁dhibaatooyinka	-11.669
▁Kulanka	-11.6691
▁growth	-11.6693
hand	-11.6694
▁ሴቶች	-11.6695
መራ	-11.6695
▁tattoos	-11.6695
nik	-11.6696
▁Swedish	-11.6697
▁Czech	-11.6697
▁façon	-11.67
mento	-11.67
▁vous	-11.6703
▁اس	-11.6704
▁gaske	-11.6704
▁gebore	-11.6705
▁በተለይም	-11.6706
sili	-11.6706
▁misali	-11.6707
▁œuvre	-11.6708
▁labadii	-11.6709
▁chinhu	-11.6709
▁ngaphansi	-11.6709
▁sehatra	-11.6709
ore	-11.671
▁rikicin	-11.671
eeyaan	-11.6714
▁credit	-11.6715
▁watanzania	-11.6715
▁Mens	-11.6715
fri	-11.6716
▁nolol	-11.6719
▁paper	-11.6719
peleka	-11.6719
▁Beelaha	-11.6721
▁kikao	-11.6721
▁opleiding	-11.6723
▁irraa	-11.6726
▁khu	-11.6727
▁Abi	-11.673
▁qiimo	-11.6731
▁Maxay	-11.6732
▁langue	-11.6733
Google	-11.6734
▁serious	-11.6735
▁hantida	-11.6736
▁chance	-11.6737
▁vrede	-11.6738
tivo	-11.6738
▁viwanda	-11.6739
ison	-11.6739
▁marar	-11.674
▁frère	-11.6741
riga	-11.6741
▁Gudoomiye	-11.6741
▁Michigan	-11.6741
▁mahita	-11.6743
SU	-11.6746
▁Chitonga	-11.6746
▁entsha	-11.6747
▁turned	-11.6747
▁ቀናት	-11.6748
▁leaving	-11.6748
zela	-11.6748
dà	-11.6748
▁Prix	-11.6749
▁Kata	-11.675
▁Netherlands	-11.675
к	-11.675
sada	-11.6752
style	-11.6752
▁Ravalomanana	-11.6754
▁cali	-11.6754
cen	-11.6755
ቄ	-11.6755
rọ	-11.6757
▁Mista	-11.6757
stra	-11.6758
▁yimaada	-11.6758
▁Mur	-11.6762
▁mahala	-11.6764
▁Kula	-11.6764
same	-11.6765
▁cargo	-11.6765
iyada	-11.6767
▁Gee	-11.6768
▁Mwalimu	-11.6768
▁ewu	-11.6768
▁rural	-11.6769
▁nhasi	-11.677
▁ofishin	-11.677
ነሳ	-11.677
▁Author	-11.677
wezi	-11.6772
▁filoha	-11.6772
▁bangwe	-11.6773
▁daaroor	-11.6773
▁البحر	-11.6773
wara	-11.6773
▁droits	-11.6773
▁plays	-11.6775
▁matakan	-11.6776
▁ሴት	-11.6776
▁kaasi	-11.6777
keedu	-11.6777
▁famous	-11.6777
▁oga	-11.6778
zira	-11.6779
oso	-11.6779
▁dangane	-11.6781
▁Heilige	-11.6781
▁yemwe	-11.6782
▁Scotland	-11.6782
▁Daa	-11.6783
CS	-11.6783
▁jab	-11.6785
▁offered	-11.6785
▁slot	-11.6788
▁hapana	-11.6789
▁loona	-11.679
vas	-11.679
▁ọnọdụ	-11.6791
▁hala	-11.6792
nder	-11.6792
▁Unga	-11.6795
▁heavy	-11.6796
cada	-11.6796
née	-11.6799
▁Araka	-11.68
▁Head	-11.6803
▁soldiers	-11.6803
See	-11.6805
▁ምላሽ	-11.6806
▁adawa	-11.6806
▁soka	-11.6808
▁maskaxda	-11.6809
▁wasanni	-11.6811
bile	-11.6811
dziwa	-11.6813
▁listed	-11.6814
ा	-11.6815
yr	-11.6816
▁aiwatar	-11.6816
▁jari	-11.6816
▁likely	-11.6816
▁Information	-11.6816
ɛ	-11.6818
▁saaxiib	-11.6818
gogo	-11.682
▁Milf	-11.682
▁dhinacyada	-11.6821
▁skole	-11.6821
nini	-11.6821
GS	-11.6822
▁ataon	-11.6823
ramba	-11.6823
▁ngokwe	-11.6824
ij	-11.6824
▁Tarayya	-11.6824
▁dambeyn	-11.6824
ə	-11.6825
▁publication	-11.6825
▁karịa	-11.6828
▁ukuthola	-11.6829
▁fari	-11.6832
▁የበለጠ	-11.6832
ይን	-11.6832
▁rei	-11.6833
▁vake	-11.6834
drano	-11.6834
▁oyi	-11.6834
▁ikiwemo	-11.6835
riye	-11.6837
▁Uchaguzi	-11.6837
▁bafite	-11.6839
sig	-11.684
▁wasio	-11.684
▁Professional	-11.6843
▁መልስ	-11.6845
▁batu	-11.6846
▁haingana	-11.6846
bey	-11.6848
sky	-11.6849
▁ski	-11.6853
▁Secretary	-11.6854
▁Yayin	-11.6854
▁sanin	-11.6855
▁Columbia	-11.6856
▁malee	-11.6857
▁bwe	-11.6857
▁posisie	-11.6858
▁Madaxa	-11.6858
thatha	-11.6858
▁nǹkan	-11.6859
▁causa	-11.6859
Am	-11.686
von	-11.6861
▁Who	-11.6861
▁var	-11.6861
▁NDI	-11.6862
▁officers	-11.6862
ቶቹ	-11.6863
▁finansiële	-11.6863
▁kulul	-11.6866
▁doon	-11.6866
▁TUKO	-11.6866
▁trading	-11.6867
▁Rasha	-11.6868
▁permettant	-11.687
▁chuo	-11.687
▁appearance	-11.6873
ANA	-11.6875
▁Despite	-11.6877
buza	-11.6878
▁links	-11.6878
▁እነ	-11.6878
rim	-11.6879
▁Ò	-11.6879
ple	-11.688
▁NEWS	-11.6882
▁karfe	-11.6884
▁nígbà	-11.6885
▁sakhe	-11.6885
▁reason	-11.6886
▁hold	-11.6886
▁ekonomie	-11.6886
▁Fund	-11.6887
▁daarin	-11.6888
ሙን	-11.6888
▁makaranta	-11.6889
▁goba	-11.689
oba	-11.6891
▁Ook	-11.6892
▁fadar	-11.6893
▁ካለ	-11.6894
lemba	-11.6896
ipi	-11.6896
themba	-11.6896
mir	-11.6896
▁Little	-11.6897
élection	-11.6897
▁kitabu	-11.6897
ege	-11.6899
р	-11.69
▁gemiddelde	-11.69
▁Iska	-11.6901
nyane	-11.6901
ν	-11.6902
IC	-11.6902
▁ero	-11.6903
point	-11.6903
▁Casa	-11.6903
▁ትኩረት	-11.6904
▁Qui	-11.6904
▁steel	-11.6904
▁attempt	-11.6905
phela	-11.6905
▁Their	-11.6906
▁believed	-11.6907
مان	-11.6907
▁annual	-11.6908
▁kuweza	-11.6908
▁farashin	-11.6908
▁asseblief	-11.691
waxa	-11.691
▁cancer	-11.691
▁décide	-11.691
▁AN	-11.691
vent	-11.6911
▁Word	-11.6912
ውያን	-11.6913
veld	-11.6914
▁gụnyere	-11.6914
▁kupambana	-11.6914
▁vm	-11.6914
▁Dibadda	-11.6915
▁plat	-11.6915
zga	-11.6917
▁Leta	-11.6918
elewa	-11.6918
▁raharaha	-11.6919
dlala	-11.6919
▁pouco	-11.6919
▁pelas	-11.6921
▁nala	-11.6923
▁Mwanza	-11.6923
▁seine	-11.6924
▁kuɗi	-11.6924
▁socotay	-11.6924
▁booliska	-11.6929
sul	-11.693
moni	-11.6931
▁AY	-11.6932
bol	-11.6933
tya	-11.6933
▁awooda	-11.6933
▁stock	-11.6934
▁Faa	-11.6935
dera	-11.6936
▁mostly	-11.6936
▁እያለ	-11.6937
▁clube	-11.6938
kuu	-11.694
▁gargaar	-11.694
▁riri	-11.6941
ghe	-11.6942
▁Elimu	-11.6942
bor	-11.6942
▁ብዬ	-11.6943
▁Fan	-11.6945
▁shirika	-11.6945
▁verhandel	-11.6945
▁tattaunawa	-11.6947
▁nouveaux	-11.6947
▁oran	-11.6948
▁rena	-11.6948
▁pole	-11.6948
Uni	-11.6948
▁specific	-11.6949
▁eeg	-11.6949
▁exchange	-11.695
▁lalana	-11.695
ናል።	-11.695
▁verwyder	-11.6951
▁ባለፈው	-11.6951
▁Hans	-11.6952
cé	-11.6952
▁magance	-11.6953
▁alivyo	-11.6953
▁Warsame	-11.6953
▁starting	-11.6954
▁mapato	-11.6955
doo	-11.6955
▁Diego	-11.6956
▁kimwe	-11.6956
▁naba	-11.6956
▁Gil	-11.6957
▁Chine	-11.6958
▁address	-11.6958
▁iPad	-11.6959
▁CA	-11.6959
▁Mount	-11.6959
▁Alshabaab	-11.6959
▁walimu	-11.6959
hiri	-11.696
▁provides	-11.6961
▁igwe	-11.6962
▁dhirta	-11.6962
▁gabadha	-11.6963
▁zamu	-11.6963
khuluma	-11.6963
▁ነጻ	-11.6964
bbi	-11.6964
oh	-11.6965
▁wowote	-11.6966
▁utafiti	-11.6966
▁Samsung	-11.6967
▁sempre	-11.6967
▁tafiyar	-11.6967
▁ر	-11.6968
▁shisheeye	-11.6968
▁Library	-11.6969
United	-11.6969
▁goma	-11.6969
▁Xu	-11.697
▁فاز	-11.6971
▁AND	-11.6972
▁matenda	-11.6973
▁Disney	-11.6973
eedka	-11.6973
▁Testament	-11.6973
▁kékeré	-11.6974
▁mazungumzo	-11.6974
▁eji	-11.6976
ró	-11.6977
lag	-11.6977
dọ	-11.6978
rsa	-11.6979
ame	-11.6981
▁offers	-11.6981
weyne	-11.6981
▁sheegayaa	-11.6981
pati	-11.6982
▁kasashe	-11.6985
▁troupes	-11.6986
arta	-11.6986
▁Afrikaner	-11.6986
▁hair	-11.6986
▁mizaka	-11.6987
▁uyi	-11.6988
▁sika	-11.6989
▁inaanu	-11.6989
▁Maaliyadda	-11.699
▁banki	-11.699
▁orin	-11.6991
vid	-11.6991
▁transfer	-11.6992
▁jihohin	-11.6993
uki	-11.6993
▁awe	-11.6993
▁nezve	-11.6995
dheer	-11.6996
▁qal	-11.6996
▁produits	-11.6996
▁ተሰ	-11.6997
▁fapaneng	-11.6998
UK	-11.7001
koko	-11.7001
▁arrested	-11.7002
▁situasie	-11.7005
▁Ganduje	-11.7005
▁ir	-11.7005
▁anụ	-11.7005
bidi	-11.7006
▁Baadhi	-11.7007
Bas	-11.7008
▁ባይ	-11.7009
fontein	-11.7009
▁reports	-11.7009
▁Monte	-11.7009
▁perd	-11.7009
▁Olympics	-11.7009
ص	-11.7011
Sal	-11.7013
jar	-11.7015
cat	-11.7015
▁አባል	-11.7015
guma	-11.7017
▁katirsan	-11.7017
▁Pas	-11.7017
ool	-11.7017
▁tels	-11.7017
▁Store	-11.7018
press	-11.7018
▁klas	-11.7018
▁Cum	-11.7018
▁nine	-11.7018
▁ayyuka	-11.7019
▁wenu	-11.7019
qab	-11.7019
▁Yahova	-11.7019
ሶች	-11.7021
temple	-11.7021
ን፡	-11.7021
seks	-11.7022
pụ	-11.7024
▁SOO	-11.7025
▁bavuga	-11.7025
tafuta	-11.7026
▁raga	-11.7027
ዖ	-11.7029
ኹ	-11.7029
▁Tana	-11.7029
▁homself	-11.703
dhan	-11.7031
▁cimma	-11.7031
tur	-11.7032
▁manodidina	-11.7032
aj	-11.7033
bura	-11.7034
vyo	-11.7034
buye	-11.7035
▁سي	-11.7035
▁Motor	-11.7036
▁verkry	-11.7037
▁possède	-11.7037
kuzi	-11.7039
sai	-11.7039
▁አመት	-11.7039
▁Mill	-11.704
▁iskaga	-11.704
Cyrillic	-11.7041
▁bita	-11.7041
▁ulikuwa	-11.7041
▁internetka	-11.7042
▁Handel	-11.7042
▁Metal	-11.7043
▁ur	-11.7043
▁wateja	-11.7045
▁protect	-11.7047
▁Mahad	-11.7048
▁Luis	-11.7049
▁bronze	-11.705
▁ግንባታ	-11.7051
▁hanteer	-11.7054
▁talent	-11.7055
▁bulsho	-11.7059
▁cikinsu	-11.706
▁gaadhi	-11.706
ኩት	-11.706
▁እንዳለ	-11.7061
▁Total	-11.7061
▁tag	-11.7061
▁sand	-11.7062
OURGE	-11.7062
ቺ	-11.7063
▁dhalay	-11.7063
▁ልክ	-11.7063
▁geleer	-11.7064
▁imika	-11.7064
▁arkaan	-11.7065
wọn	-11.7066
▁looking	-11.7067
▁VAN	-11.7067
▁mchakato	-11.7068
▁Bien	-11.7068
▁Mandarin	-11.7069
▁selemo	-11.707
▁amount	-11.707
▁uhakika	-11.7071
jya	-11.7072
kada	-11.7073
▁Hoy	-11.7073
▁deeq	-11.7074
▁essa	-11.7074
▁mutumin	-11.7076
▁Islamic	-11.7077
▁Square	-11.7077
▁projek	-11.7077
▁divers	-11.7077
ሳት	-11.7078
potoana	-11.7078
homme	-11.708
بى	-11.7081
▁référence	-11.7082
▁athu	-11.7083
▁ደም	-11.7084
▁Inuu	-11.7086
▁Bell	-11.7086
▁zangu	-11.7086
▁Four	-11.7089
▁canton	-11.7091
▁groupes	-11.7092
መድ	-11.7093
▁Dhacay	-11.7095
▁mkazi	-11.7095
▁Cas	-11.7095
▁drive	-11.7096
▁yami	-11.7097
▁khatar	-11.7098
▁Kanisa	-11.7098
▁veld	-11.7098
indi	-11.7099
▁baga	-11.7099
▁RE	-11.7099
▁diep	-11.71
por	-11.7101
▁seat	-11.7101
AN	-11.7101
▁ድርጅቶች	-11.7101
▁obra	-11.7102
▁Eu	-11.7102
▁importantes	-11.7103
▁abuuray	-11.7105
▁represented	-11.7106
▁develop	-11.7107
▁taro	-11.7107
▁initially	-11.7107
▁ajiya	-11.7108
zon	-11.7108
▁Fin	-11.7108
▁pass	-11.7108
▁Dick	-11.7111
▁INEC	-11.7112
▁taageerada	-11.7112
▁gedink	-11.7112
jali	-11.7114
▁gidajen	-11.7114
▁sale	-11.7116
RE	-11.7117
▁kadi	-11.7117
▁celles	-11.7118
▁ofin	-11.7119
▁auren	-11.7119
▁ሂደት	-11.7119
▁anareo	-11.7119
thanda	-11.7119
▁Stellenbosch	-11.712
ulu	-11.7125
ability	-11.7126
▁Front	-11.7126
▁Masa	-11.7126
ğ	-11.7127
▁arms	-11.7127
▁ngokushesha	-11.7127
▁donker	-11.7129
▁forum	-11.7129
▁possui	-11.7129
dini	-11.713
▁Qa	-11.7131
▁poly	-11.7132
َ	-11.7133
meen	-11.7135
vele	-11.7135
▁አካላት	-11.7136
▁socodka	-11.7137
aires	-11.7138
anii	-11.714
▁iran	-11.7141
▁yidhaahdo	-11.7141
▁mettre	-11.7142
▁inhoud	-11.7142
▁cheap	-11.7142
▁belang	-11.7143
▁በተጨማሪም	-11.7143
▁knowledge	-11.7143
▁wuraren	-11.7144
▁stryd	-11.7145
▁dhalinyaro	-11.7147
▁faz	-11.7148
▁mgbanwe	-11.7148
▁Pennsylvania	-11.7148
▁actually	-11.7153
▁tuli	-11.7154
▁olon	-11.7154
▁ስለሆነ	-11.7154
▁Era	-11.7154
▁mashruuca	-11.7155
▁daholo	-11.7157
gri	-11.7158
▁Back	-11.7159
▁baaq	-11.7159
▁Ujerumani	-11.7159
▁የት	-11.716
▁Kati	-11.7161
▁Salaad	-11.7161
▁Maalinta	-11.7161
ፈው	-11.7162
ሰን	-11.7163
▁vyote	-11.7163
▁cd	-11.7164
▁jirtaa	-11.7165
▁Singapore	-11.7165
ude	-11.7166
▁qaybaha	-11.7166
▁Lin	-11.7166
ever	-11.7166
▁bevestig	-11.7167
▁fulin	-11.7167
▁referred	-11.7168
▁natuurlike	-11.717
lys	-11.717
sile	-11.7171
▁fool	-11.7171
mond	-11.7172
▁faharoa	-11.7173
objet	-11.7175
▁governor	-11.7176
▁Sarah	-11.7176
▁mataifa	-11.7176
ድን	-11.7177
▁quartier	-11.7178
▁antoka	-11.718
ዑ	-11.7186
▁kwii	-11.7188
▁kika	-11.7188
▁esse	-11.7189
satay	-11.7189
▁Alhamis	-11.7189
▁stars	-11.7189
Read	-11.719
▁chamado	-11.719
▁lero	-11.7191
▁Picha	-11.7191
▁sauri	-11.7191
▁gbasara	-11.7192
llaahi	-11.7192
kum	-11.7192
lk	-11.7193
▁yimaadeen	-11.7196
Star	-11.7196
▁Hakuna	-11.7198
▁ankizy	-11.7199
▁MT	-11.7199
▁kaka	-11.7199
hura	-11.72
zen	-11.7201
▁artists	-11.7202
▁construção	-11.7203
▁mwanadamu	-11.7203
▁Phil	-11.7204
▁maemo	-11.7205
▁omi	-11.7205
PF	-11.7205
اد	-11.7206
II	-11.7208
reen	-11.721
book	-11.721
▁manam	-11.7212
▁maikutlo	-11.7213
mama	-11.7213
▁Fair	-11.7214
▁wild	-11.7214
▁classement	-11.7214
▁mataimakin	-11.7215
▁Ngenxa	-11.7215
▁yagize	-11.7216
ሮም	-11.7216
▁የሚያስ	-11.7218
▁adadin	-11.7218
▁latsa	-11.7218
▁fans	-11.7218
foto	-11.7218
kor	-11.7218
bari	-11.7219
▁doonayaan	-11.722
SP	-11.7221
▁versão	-11.7222
▁executive	-11.7223
bri	-11.7224
▁nnọọ	-11.7225
▁umadda	-11.7225
▁mahitaji	-11.7225
▁gbọ	-11.7228
▁items	-11.7229
bs	-11.7231
▁Hart	-11.7231
uploads	-11.7232
▁Mee	-11.7232
▁Rugby	-11.7232
▁historique	-11.7233
▁DAR	-11.7234
how	-11.7234
▁qoys	-11.7234
Université	-11.7239
▁mampiasa	-11.7239
Kha	-11.7239
gwira	-11.724
▁Sua	-11.7242
▁Personal	-11.7242
▁watsa	-11.7242
▁expected	-11.7242
▁Ame	-11.7242
▁vitendo	-11.7243
▁nekuti	-11.7245
▁posição	-11.7245
▁yaya	-11.7247
paka	-11.7249
▁tarihin	-11.7249
▁zile	-11.7249
▁kushiriki	-11.7251
▁gesels	-11.7252
eta	-11.7253
ose	-11.7254
▁élu	-11.7255
▁arrinta	-11.7255
▁daina	-11.7255
▁programs	-11.7257
genda	-11.7257
▁biliyan	-11.7258
▁kal	-11.7259
▁faịlụ	-11.7261
ions	-11.7262
▁Jewish	-11.7263
▁سو	-11.7265
▁Isla	-11.7265
ቓ	-11.7265
▁britannique	-11.7266
▁Thailand	-11.7266
▁አገሮች	-11.7268
sida	-11.7269
▁nezinye	-11.7271
▁Wakiilada	-11.7273
▁voorsien	-11.7273
▁solution	-11.7274
▁persent	-11.7274
ST	-11.7275
ቶችን	-11.7276
▁Gor	-11.7276
▁Field	-11.7276
▁kiuchumi	-11.7277
▁activités	-11.7278
▁Voices	-11.7278
▁Mil	-11.7281
▁يا	-11.7282
▁reçu	-11.7282
teer	-11.7282
▁mucaaradka	-11.7283
▁boodskap	-11.7283
▁Ilu	-11.7284
nụ	-11.7284
ária	-11.7285
▁mfundo	-11.7286
▁names	-11.7286
▁appelé	-11.7288
▁Agency	-11.7289
▁mimba	-11.729
▁fetur	-11.7291
▁mazuri	-11.7292
▁baxeen	-11.7293
▁natuur	-11.7294
ደው	-11.7294
▁vision	-11.7294
▁gane	-11.7294
▁Clinton	-11.7295
KI	-11.7296
▁dabi	-11.7296
▁Xassan	-11.7297
keedii	-11.7297
▁rend	-11.7298
dka	-11.7298
▁በእ	-11.7301
▁tema	-11.7303
▁Laascaanood	-11.7303
njira	-11.7304
▁በአዲስ	-11.7305
▁Fal	-11.7305
▁Hase	-11.7305
▁kuzuia	-11.7306
▁kita	-11.7307
▁rẹ̀	-11.7308
▁Bursa	-11.7309
▁tšeo	-11.731
▁yaabo	-11.731
::::"	-11.731
Un	-11.7311
▁rajo	-11.7313
يم	-11.7314
▁monna	-11.7316
▁Dag	-11.7318
hlu	-11.7318
▁laguna	-11.7319
▁Sommige	-11.732
▁cuntada	-11.732
KU	-11.7321
▁ziri	-11.7321
▁initial	-11.7321
▁relation	-11.7321
▁regs	-11.7323
peza	-11.7323
▁kubona	-11.7324
▁ለማግኘት	-11.7325
▁safi	-11.7326
▁elk	-11.7326
▁kutekeleza	-11.7326
▁Ubu	-11.7327
Luka	-11.7327
▁Alliance	-11.7327
▁juhudi	-11.7327
DE	-11.7328
ı	-11.7328
gela	-11.7329
▁bixiyo	-11.7329
▁prior	-11.7329
▁council	-11.7329
hab	-11.733
tawa	-11.7332
ዥ	-11.7333
▁Bola	-11.7333
▁Aminu	-11.7334
▁Bri	-11.7335
▁gebaseer	-11.7335
▁verkeerd	-11.7337
▁jogos	-11.734
▁cap	-11.7341
▁projeto	-11.7341
▁critique	-11.7342
▁vaste	-11.7343
nyumba	-11.7343
▁Karl	-11.7343
▁ushirikiano	-11.7343
▁نهر	-11.7343
▁Aki	-11.7344
▁deve	-11.7345
puta	-11.7346
▁Untold	-11.7347
▁BE	-11.7348
▁Hab	-11.735
▁joang	-11.735
▁Davis	-11.7351
▁Limited	-11.7352
▁swak	-11.7352
▁diin	-11.7352
kila	-11.7353
▁dhallinyarada	-11.7353
▁ahubwo	-11.7353
▁classes	-11.7353
▁hospitali	-11.7355
▁imidlalo	-11.7355
▁animal	-11.7355
▁Portuguese	-11.7356
▁gevalle	-11.7357
▁aansoek	-11.7358
▁Indonesia	-11.736
▁Bio	-11.736
▁Cat	-11.7362
▁Ilaa	-11.7362
▁Systems	-11.7362
▁Ada	-11.7366
▁inkomste	-11.7366
▁Sou	-11.7366
▁ihu	-11.7368
▁Guinea	-11.737
▁xabsiga	-11.737
keer	-11.7371
▁ibikorwa	-11.7371
▁Gre	-11.7371
▁vilivyo	-11.7371
▁check	-11.7372
▁baxsan	-11.7373
▁pontos	-11.7374
▁contains	-11.7375
sato	-11.7375
▁Cabdillaahi	-11.7376
ised	-11.7382
wl	-11.7382
▁Guide	-11.7383
▁Ross	-11.7384
▁studied	-11.7384
ilo	-11.7385
▁kisa	-11.7386
▁versions	-11.7388
▁retrouve	-11.739
▁Wild	-11.739
▁Oxford	-11.7391
ƙa	-11.7391
▁hadlayo	-11.7393
gem	-11.7393
▁Yar	-11.7393
▁samo	-11.7395
▁hoër	-11.7395
▁someone	-11.7396
base	-11.7396
▁ushauri	-11.7396
▁separate	-11.7396
▁length	-11.7397
▁Studies	-11.7397
▁ሃገራት	-11.7398
▁ensemble	-11.7398
Yo	-11.7398
▁RA	-11.7399
BO	-11.74
▁iwa	-11.74
▁Delta	-11.7401
▁bbw	-11.7401
▁zuba	-11.7401
▁levels	-11.7402
gize	-11.7402
▁banna	-11.7402
oti	-11.7402
▁....	-11.7403
▁Del	-11.7404
ẹ̀	-11.7404
▁umuhimu	-11.7404
▁sense	-11.7407
▁nanomboka	-11.7407
▁kasuwar	-11.7408
▁skrywer	-11.7408
▁wuya	-11.7409
▁Cikin	-11.7409
▁لو	-11.7409
▁onderwys	-11.741
▁lisebelisoa	-11.741
▁Jose	-11.7412
▁mnamo	-11.7412
▁understand	-11.7413
▁mitondra	-11.7413
▁wacan	-11.7414
▁Amsterdam	-11.7414
nar	-11.7414
▁benodig	-11.7414
▁sheegi	-11.7415
▁ከኣ	-11.7417
▁marnaba	-11.7417
tina	-11.7418
ሰር	-11.7421
ደር	-11.7421
rro	-11.7422
▁positions	-11.7422
tokea	-11.7423
▁molao	-11.7424
▁markiiba	-11.7425
▁Pay	-11.7426
ሠራ	-11.7429
▁racer	-11.7429
▁kamati	-11.743
▁ሌላው	-11.7431
▁faut	-11.7431
▁hogaanka	-11.7433
ema	-11.7434
▁Call	-11.7437
bat	-11.7437
mora	-11.7437
vula	-11.7437
rraa	-11.7437
▁ጉዳት	-11.7438
▁Baa	-11.744
▁vrees	-11.7441
rant	-11.7442
▁Chu	-11.7443
▁reviews	-11.7444
dele	-11.7444
▁madini	-11.7445
▁communities	-11.7445
▁uthole	-11.7445
▁instrument	-11.7447
▁daily	-11.7447
▁Hada	-11.7448
▁xubin	-11.7448
▁omunye	-11.745
▁diferentes	-11.7451
▁guusha	-11.7451
cca	-11.7453
▁Quando	-11.7454
Madaxweynaha	-11.7454
Kristu	-11.7454
▁leli	-11.7454
▁maamuzi	-11.7454
▁gudu	-11.7454
▁Ph	-11.7455
▁Eva	-11.7456
ência	-11.7457
▁licha	-11.7458
▁Player	-11.7459
▁baran	-11.746
▁kuda	-11.746
manzi	-11.746
▁dam	-11.7462
▁saar	-11.7462
▁Ash	-11.7462
▁kacha	-11.7462
▁geestelike	-11.7463
iido	-11.7463
▁isticmaalka	-11.7464
▁approximately	-11.7466
▁kiri	-11.7466
▁mot	-11.7466
▁matsalolin	-11.7466
▁meilleur	-11.7467
▁zenye	-11.7468
▁eedeeyay	-11.7469
▁thupi	-11.7469
▁qabtaan	-11.7469
ONA	-11.747
rio	-11.747
▁revealed	-11.747
▁ịgba	-11.7471
asho	-11.7471
▁boky	-11.7472
▁shafukan	-11.7472
▁kultuur	-11.7473
og	-11.7474
▁hot	-11.7474
▁compagnie	-11.7475
▁Morena	-11.7476
gas	-11.7476
▁Beijing	-11.7477
▁serving	-11.7477
▁wathu	-11.7479
▁Nee	-11.7479
lisi	-11.7479
▁ruimte	-11.7481
▁nyocha	-11.7483
▁zanak	-11.7484
itaanka	-11.7484
▁husika	-11.7485
▁généralement	-11.7486
▁hhayi	-11.7486
▁cell	-11.7487
taura	-11.7488
▁saarka	-11.7488
▁motar	-11.7488
▁shown	-11.7492
qaa	-11.7492
▁sakho	-11.7493
▁américaine	-11.7493
о	-11.7493
mwo	-11.7493
▁Trade	-11.7494
▁Qayb	-11.7495
▁gebring	-11.7496
▁Terwyl	-11.7497
▁lines	-11.7498
▁voyage	-11.7498
▁ተመ	-11.7498
▁Facts	-11.7499
vat	-11.7499
▁ዓላማ	-11.75
▁papa	-11.7501
▁Part	-11.7501
work	-11.7503
▁geral	-11.7504
ade	-11.7505
فر	-11.7505
▁Phiri	-11.7508
▁désormais	-11.7508
▁veilig	-11.7508
▁dagaalkii	-11.751
▁wutar	-11.7511
يب	-11.7512
▁tima	-11.7512
▁Kanada	-11.7514
lipa	-11.7515
pfu	-11.7516
▁Teen	-11.7518
ሳይ	-11.7518
▁dashi	-11.7518
▁arrived	-11.7519
▁bẹẹ	-11.7519
▁Gas	-11.7521
▁ouderdom	-11.7521
▁genade	-11.7522
▁documents	-11.7523
part	-11.7525
▁ዚ	-11.7525
▁Magazine	-11.7525
its	-11.7525
▁Mail	-11.7525
ọ́	-11.7526
ته	-11.7526
▁Ngaphezu	-11.7527
▁FSX	-11.7527
▁workers	-11.7528
▁Sex	-11.7528
▁boloka	-11.7529
▁xaga	-11.753
▁dhaliyay	-11.7532
▁talk	-11.7533
▁Balozi	-11.7533
▁embora	-11.7534
rere	-11.7534
▁ficou	-11.7534
▁reach	-11.7534
▁shared	-11.7535
▁Ligi	-11.7535
▁yiwa	-11.7536
▁Set	-11.7539
▁Thinkers	-11.754
▁TU	-11.754
▁okporo	-11.7541
▁Boqor	-11.7541
Á	-11.7542
▁xeerka	-11.7542
▁dhagax	-11.7544
▁ceeb	-11.7546
▁Senate	-11.7547
rik	-11.7548
▁eyiti	-11.7549
▁mitundu	-11.755
▁Waraabe	-11.755
х	-11.7551
▁lonke	-11.7551
▁በዓል	-11.7552
mẹ	-11.7553
▁እጅ	-11.7554
▁aay	-11.7556
ọ̀	-11.7556
▁Another	-11.7557
▁diiwaan	-11.7557
▁farkon	-11.7557
▁passé	-11.7557
▁Peace	-11.7558
▁አለበት	-11.7559
▁malawi	-11.756
NE	-11.756
aynta	-11.756
bonisa	-11.756
▁finally	-11.756
AC	-11.7562
▁Eyi	-11.7563
▁akwa	-11.7564
▁nearly	-11.7566
haba	-11.7567
▁bikorwa	-11.7567
Sawirro	-11.7567
phakathi	-11.7568
daba	-11.7568
▁Faransiiska	-11.7568
▁map	-11.7568
▁internationale	-11.7568
hola	-11.7568
▁Moenie	-11.7569
▁voix	-11.7569
▁fond	-11.7569
awi	-11.7569
▁xi	-11.7571
▁puntland	-11.7572
▁Tao	-11.7574
TS	-11.7575
▁teto	-11.7577
fanele	-11.7577
▁zethu	-11.7578
▁ትንሽ	-11.7579
straat	-11.758
▁dibada	-11.758
ree	-11.758
▁Nina	-11.7581
▁codsaday	-11.7581
jà	-11.7581
TT	-11.7582
▁sécurité	-11.7583
▁chanzo	-11.7583
▁Hari	-11.7583
▁watumishi	-11.7583
Foto	-11.7584
▁እውነት	-11.7584
▁master	-11.7584
▁Dé	-11.7586
▁Space	-11.7586
pokea	-11.7586
trek	-11.7587
▁habitantes	-11.7588
▁zawo	-11.7588
▁ntlha	-11.7588
▁soco	-11.7588
▁isaguna	-11.7589
▁Tha	-11.7589
▁boere	-11.7589
▁Maji	-11.7591
▁sabbin	-11.7591
▁forms	-11.7592
▁approach	-11.7592
▁አንተ	-11.7593
▁eside	-11.7593
▁enweghị	-11.7594
ኞች	-11.7594
▁keessaa	-11.7594
▁Tse	-11.7595
▁Chile	-11.7596
▁ስት	-11.7597
▁edition	-11.7601
▁wọ́n	-11.7602
▁makosa	-11.7602
▁Seu	-11.7602
▁Kevin	-11.7603
izing	-11.7603
▁jiragen	-11.7604
▁uses	-11.7604
▁Ng	-11.7604
PO	-11.7604
▁AU	-11.7606
cita	-11.7607
urar	-11.7608
▁madow	-11.7608
▁alone	-11.7608
▁candidate	-11.7609
ያት	-11.7609
▁remain	-11.761
▁ተመሳሳይ	-11.761
▁taratibu	-11.761
moya	-11.7611
▁basiese	-11.7611
▁wawo	-11.7612
▁አቅም	-11.7613
▁madai	-11.7613
kanye	-11.7614
IRA	-11.7615
▁kununua	-11.7615
▁ncha	-11.7615
▁asali	-11.7616
lly	-11.7616
▁Russie	-11.7616
TH	-11.7617
▁dias	-11.7618
kera	-11.7618
▁abokin	-11.7619
▁nd	-11.762
▁gulu	-11.7621
▁villes	-11.7621
▁Kwanza	-11.7621
▁Muka	-11.7622
▁إ	-11.7622
▁yada	-11.7622
▁kuta	-11.7623
▁prince	-11.7623
▁quem	-11.7623
▁anọ	-11.7624
olu	-11.7624
cia	-11.7624
▁Engineering	-11.7626
▁iroyin	-11.7628
▁ጥናት	-11.7629
gare	-11.763
▁maswali	-11.763
liwa	-11.7631
▁Pamoja	-11.7631
▁klaar	-11.7631
▁caption	-11.7632
bba	-11.7633
▁ripoti	-11.7633
▁Ntchito	-11.7633
▁résultats	-11.7633
▁arrive	-11.7637
ius	-11.7638
▁miliyoni	-11.7639
▁dentro	-11.764
▁oorlog	-11.7641
▁moeite	-11.7641
▁aard	-11.7642
▁managed	-11.7642
▁meurt	-11.7642
▁œuvres	-11.7643
▁saraakiisha	-11.7644
▁lamba	-11.7647
▁siyasar	-11.7648
▁Also	-11.7649
▁arts	-11.765
▁tydperk	-11.7651
▁Stuur	-11.7651
gani	-11.7652
▁Mbola	-11.7652
▁água	-11.7652
ibindi	-11.7652
ንን	-11.7653
miasa	-11.7653
▁halafu	-11.7654
RY	-11.7655
▁images	-11.7656
▁Vietnam	-11.7657
▁dance	-11.7657
▁Roger	-11.7658
▁records	-11.7659
ሒ	-11.7659
▁gegaan	-11.7661
▁tanora	-11.7661
▁Usman	-11.7661
▁saareen	-11.7662
▁ngaphakathi	-11.7662
nzo	-11.7662
lad	-11.7662
▁ዜጎች	-11.7663
reo	-11.7663
▁biiray	-11.7663
eel	-11.7664
▁utekelezaji	-11.7664
▁tournament	-11.7665
▁ol	-11.7667
▁Pra	-11.7668
▁agreement	-11.7668
▁Capital	-11.7669
▁favor	-11.767
▁Wu	-11.7672
▁gelukkig	-11.7672
▁izvo	-11.7673
MS	-11.7674
▁analysis	-11.7674
▁Pendant	-11.7674
▁Kongo	-11.7674
▁inagu	-11.7676
ш	-11.7676
Ad	-11.7677
▁Haya	-11.7677
][	-11.7678
▁سان	-11.7679
▁Kampuni	-11.7679
EP	-11.7681
▁كانت	-11.7681
ائ	-11.7681
▁waarmee	-11.7682
▁Bit	-11.7683
▁DNA	-11.7683
▁Asa	-11.7684
▁Posts	-11.7684
▁xidhiidhka	-11.7684
izo	-11.7685
▁inaysan	-11.7686
▁mean	-11.7686
▁mankany	-11.7687
▁Biden	-11.7688
በል	-11.7688
biri	-11.7689
▁overall	-11.7689
▁santé	-11.7689
tini	-11.7689
▁kalana	-11.7689
œuvre	-11.769
▁Kumbi	-11.7691
uzi	-11.7691
▁giving	-11.7691
spel	-11.7694
chaa	-11.7695
▁Maya	-11.7695
▁eza	-11.7695
▁mahery	-11.7695
▁ọlọpaa	-11.7696
▁leha	-11.7697
▁nweta	-11.7697
ቫ	-11.7698
▁Saa	-11.7698
▁Sababta	-11.7698
▁hama	-11.7703
▁jini	-11.7703
▁vanjaar	-11.7703
▁therefore	-11.7704
nier	-11.7706
angalia	-11.7707
▁kamili	-11.7708
▁mandritra	-11.7709
▁rero	-11.7709
avoir	-11.7709
▁የታ	-11.771
▁ሆ	-11.7711
mbula	-11.7711
▁aika	-11.7712
▁moyen	-11.7712
▁ewe	-11.7712
with	-11.7712
▁jan	-11.7713
DF	-11.7714
▁Izvi	-11.7714
ራዊ	-11.7714
▁Permalink	-11.7714
▁BC	-11.7714
▁سيتى	-11.7714
▁qabteen	-11.7715
▁Makamu	-11.7716
▁lena	-11.7719
▁yali	-11.7719
aalaha	-11.7719
▁Hindiya	-11.7719
bá	-11.7719
iteit	-11.7719
Í	-11.772
▁geweet	-11.772
▁kamera	-11.7722
▁KO	-11.7723
▁ballaaran	-11.7723
tenge	-11.7724
▁aid	-11.7724
Saint	-11.7724
omi	-11.7724
▁እንደተ	-11.7725
▁Avenue	-11.7725
▁droite	-11.7725
▁majina	-11.7725
▁barbar	-11.7726
▁coast	-11.7726
▁Mundial	-11.7727
▁ujumla	-11.7728
▁Cirro	-11.7728
▁በሆነ	-11.7732
▁villages	-11.7735
lí	-11.7738
▁risque	-11.7738
▁Nick	-11.7738
▁cialis	-11.7739
▁outra	-11.7739
▁Enhancement	-11.7739
▁kaddamar	-11.7739
kely	-11.7741
ienne	-11.7744
▁hands	-11.7746
bí	-11.7747
lewe	-11.7747
▁اونتاريو	-11.7748
wale	-11.7749
▁talle	-11.7751
▁ithuta	-11.7751
boy	-11.7752
▁gaartay	-11.7752
▁masomo	-11.7753
▁vyema	-11.7755
▁Chat	-11.7757
▁trying	-11.7757
▁residents	-11.7758
▁tien	-11.776
cht	-11.776
▁Philippe	-11.776
▁የሚሰጡዋቸውን	-11.7761
▁Yaa	-11.7761
▁Jesoa	-11.7761
▁ፍቅር	-11.7761
▁Three	-11.7762
▁commerce	-11.7763
▁maayo	-11.7764
▁dhaco	-11.7764
mun	-11.7766
▁faraxsan	-11.7766
▁Alfred	-11.7767
pereka	-11.7767
nahay	-11.777
▁manema	-11.777
FM	-11.7771
▁yaqaano	-11.7771
ሔ	-11.7772
▁Program	-11.7772
▁ọdọ	-11.7772
ete	-11.7774
game	-11.7776
▁Adduunka	-11.7776
▁ይሆን	-11.7777
▁projects	-11.7779
zaka	-11.7779
▁Biyaha	-11.778
▁sar	-11.7781
▁difficult	-11.7782
▁hankalin	-11.7783
▁tlase	-11.7784
▁mbona	-11.7784
▁totdat	-11.7785
▁masiku	-11.7785
▁swali	-11.7786
xu	-11.7786
▁Eto	-11.7788
▁équipes	-11.7789
▁saamayn	-11.7789
▁Fulani	-11.7789
▁anglais	-11.779
▁ዩኒቨርሲቲ	-11.7791
▁celiyo	-11.7791
▁saint	-11.7791
("	-11.7793
idae	-11.7793
▁Supplements	-11.7794
tlha	-11.7796
▁ብሔራዊ	-11.7796
▁Try	-11.7796
▁noqdeen	-11.7796
lile	-11.7796
▁anivon	-11.7797
daar	-11.7797
▁break	-11.7798
▁Njengoba	-11.78
▁gazeti	-11.78
▁host	-11.78
▁Corps	-11.78
▁ring	-11.7801
▁kubi	-11.7801
▁tuin	-11.7801
▁Bai	-11.7802
tuna	-11.7804
▁haha	-11.7804
▁proposed	-11.7806
▁Halkaan	-11.7807
▁yama	-11.7807
▁Septemba	-11.7807
يز	-11.7808
▁lit	-11.7808
banda	-11.7808
▁twi	-11.781
▁Hadda	-11.781
▁directly	-11.7811
▁Waayo	-11.7812
dhaa	-11.7812
▁kike	-11.7813
gada	-11.7813
▁amni	-11.7813
▁scene	-11.7814
▁shemale	-11.7814
sí	-11.7814
▁pen	-11.7814
▁daarmee	-11.7816
▁balaadhan	-11.7816
pira	-11.7816
▁tarihi	-11.7817
▁gaadho	-11.7818
▁ህይወት	-11.7818
▁Sim	-11.7818
▁fighting	-11.7819
groep	-11.782
▁waliokuwa	-11.782
▁issued	-11.7821
▁Marine	-11.7821
▁doorashadii	-11.7821
▁capacity	-11.7822
▁isticmaali	-11.7823
▁prominent	-11.7825
▁daarvoor	-11.7826
▁tirsanaa	-11.7827
▁orilẹ	-11.7828
▁kanuni	-11.7828
▁Ingabe	-11.7829
▁card	-11.783
BB	-11.783
▁ukwazi	-11.7832
▁vuur	-11.7833
▁sheeg	-11.7834
kupa	-11.7834
▁Hussein	-11.7834
▁lilemo	-11.7835
▁Week	-11.7835
▁ekstra	-11.7835
▁Route	-11.7836
▁Ciidamo	-11.7836
▁générale	-11.784
▁association	-11.784
▁q	-11.784
▁DJ	-11.7841
▁القريبه	-11.7841
▁Wargeyska	-11.7841
date	-11.7842
▁gaya	-11.7843
ቦች	-11.7844
▁mbinu	-11.7846
bil	-11.7846
▁hoeveel	-11.7847
▁caruur	-11.7848
▁xiiso	-11.7848
sien	-11.7848
▁Sau	-11.7849
▁invloed	-11.7849
▁dalkaas	-11.7849
zamu	-11.7849
▁Ŵa	-11.7851
▁kure	-11.7852
▁kushindwa	-11.7853
▁faible	-11.7853
▁none	-11.7854
▁yokuthi	-11.7856
▁matibabu	-11.7856
▁teken	-11.7856
kuli	-11.7857
▁መሪዎች	-11.7857
sẹ	-11.7857
▁kuugu	-11.7857
▁historical	-11.7858
mthetho	-11.7858
▁watanni	-11.786
▁End	-11.7862
til	-11.7863
▁rwo	-11.7863
rent	-11.7865
▁performances	-11.7866
kiya	-11.7867
▁gelyk	-11.7868
▁baolina	-11.7871
▁Waan	-11.7873
▁Norte	-11.7873
▁Est	-11.7873
▁siman	-11.7874
geeda	-11.7874
▁wrong	-11.7876
hela	-11.7877
▁kunge	-11.7878
hata	-11.7879
wanda	-11.7879
▁variety	-11.788
ING	-11.7884
▁Ur	-11.7886
bka	-11.7888
▁progress	-11.7889
rit	-11.789
▁ጋ	-11.789
▁larger	-11.7891
▁horjeeda	-11.7894
Ana	-11.7894
gbo	-11.7895
basa	-11.7896
uuliyiinta	-11.7896
▁Gud	-11.7897
eze	-11.7899
ናን	-11.79
▁Nam	-11.7902
▁Ai	-11.7902
▁soutien	-11.7902
RS	-11.7903
▁Smart	-11.7903
ndlu	-11.7903
char	-11.7904
site	-11.7905
▁ሜ	-11.7905
yenera	-11.7906
▁tir	-11.7906
[...]
